// Auto-generated TFLite model header
// Model: liquid_classifier
// Size: 22448 bytes
#ifndef LIQUID_CLASSIFIER_H
#define LIQUID_CLASSIFIER_H

const unsigned int liquid_classifier_len = 22448;
alignas(8) const unsigned char liquid_classifier[] = {
  0x1c, 0x00, 0x00, 0x00, 0x54, 0x46, 0x4c, 0x33, 0x14, 0x00, 0x20, 0x00,
  0x1c, 0x00, 0x18, 0x00, 0x14, 0x00, 0x10, 0x00, 0x0c, 0x00, 0x00, 0x00,
  0x08, 0x00, 0x04, 0x00, 0x14, 0x00, 0x00, 0x00, 0x1c, 0x00, 0x00, 0x00,
  0x1c, 0x00, 0x00, 0x00, 0x74, 0x00, 0x00, 0x00, 0xcc, 0x38, 0x00, 0x00,
  0xdc, 0x38, 0x00, 0x00, 0x44, 0x57, 0x00, 0x00, 0x03, 0x00, 0x00, 0x00,
  0x00, 0x00, 0x00, 0x00, 0x02, 0x00, 0x00, 0x00, 0x34, 0x00, 0x00, 0x00,
  0x04, 0x00, 0x00, 0x00, 0xdc, 0xff, 0xff, 0xff, 0x10, 0x00, 0x00, 0x00,
  0x04, 0x00, 0x00, 0x00, 0x13, 0x00, 0x00, 0x00, 0x43, 0x4f, 0x4e, 0x56,
  0x45, 0x52, 0x53, 0x49, 0x4f, 0x4e, 0x5f, 0x4d, 0x45, 0x54, 0x41, 0x44,
  0x41, 0x54, 0x41, 0x00, 0x08, 0x00, 0x0c, 0x00, 0x08, 0x00, 0x04, 0x00,
  0x08, 0x00, 0x00, 0x00, 0x0f, 0x00, 0x00, 0x00, 0x04, 0x00, 0x00, 0x00,
  0x13, 0x00, 0x00, 0x00, 0x6d, 0x69, 0x6e, 0x5f, 0x72, 0x75, 0x6e, 0x74,
  0x69, 0x6d, 0x65, 0x5f, 0x76, 0x65, 0x72, 0x73, 0x69, 0x6f, 0x6e, 0x00,
  0x11, 0x00, 0x00, 0x00, 0x54, 0x38, 0x00, 0x00, 0x4c, 0x38, 0x00, 0x00,
  0x2c, 0x38, 0x00, 0x00, 0x9c, 0x37, 0x00, 0x00, 0x0c, 0x37, 0x00, 0x00,
  0xfc, 0x2e, 0x00, 0x00, 0xec, 0x2d, 0x00, 0x00, 0xdc, 0x0d, 0x00, 0x00,
  0xcc, 0x0b, 0x00, 0x00, 0xbc, 0x00, 0x00, 0x00, 0xb4, 0x00, 0x00, 0x00,
  0xac, 0x00, 0x00, 0x00, 0xa4, 0x00, 0x00, 0x00, 0x9c, 0x00, 0x00, 0x00,
  0x94, 0x00, 0x00, 0x00, 0x74, 0x00, 0x00, 0x00, 0x04, 0x00, 0x00, 0x00,
  0x5a, 0xc7, 0xff, 0xff, 0x04, 0x00, 0x00, 0x00, 0x60, 0x00, 0x00, 0x00,
  0x0c, 0x00, 0x00, 0x00, 0x08, 0x00, 0x0e, 0x00, 0x08, 0x00, 0x04, 0x00,
  0x08, 0x00, 0x00, 0x00, 0x10, 0x00, 0x00, 0x00, 0x28, 0x00, 0x00, 0x00,
  0x00, 0x00, 0x06, 0x00, 0x08, 0x00, 0x04, 0x00, 0x06, 0x00, 0x00, 0x00,
  0x04, 0x00, 0x00, 0x00, 0x01, 0x00, 0x00, 0x00, 0xeb, 0x03, 0x00, 0x00,
  0x0c, 0x00, 0x18, 0x00, 0x14, 0x00, 0x10, 0x00, 0x0c, 0x00, 0x04, 0x00,
  0x0c, 0x00, 0x00, 0x00, 0x12, 0x37, 0x2b, 0x06, 0x30, 0x9b, 0x7d, 0x12,
  0x03, 0x00, 0x00, 0x00, 0x02, 0x00, 0x00, 0x00, 0x04, 0x00, 0x00, 0x00,
  0x06, 0x00, 0x00, 0x00, 0x32, 0x2e, 0x32, 0x30, 0x2e, 0x30, 0x00, 0x00,
  0xc6, 0xc7, 0xff, 0xff, 0x04, 0x00, 0x00, 0x00, 0x10, 0x00, 0x00, 0x00,
  0x31, 0x2e, 0x31, 0x34, 0x2e, 0x30, 0x00, 0x00, 0x00, 0x00, 0x00, 0x00,
  0x00, 0x00, 0x00, 0x00, 0xb0, 0xc7, 0xff, 0xff, 0xb4, 0xc7, 0xff, 0xff,
  0xb8, 0xc7, 0xff, 0xff, 0xbc, 0xc7, 0xff, 0xff, 0xc0, 0xc7, 0xff, 0xff,
  0xf6, 0xc7, 0xff, 0xff, 0x04, 0x00, 0x00, 0x00, 0x00, 0x0b, 0x00, 0x00,
  0x7f, 0xc1, 0x0a, 0xfb, 0xe0, 0x19, 0xdc, 0x10, 0x04, 0x1c, 0x3b, 0x1d,
  0x25, 0x17, 0xdb, 0xe4, 0xff, 0x1f, 0x6f, 0xfd, 0x03, 0x0c, 0xf6, 0x02,
  0xac, 0x14, 0x40, 0x29, 0x04, 0xe5, 0x07, 0xb9, 0xf7, 0x19, 0x43, 0x7f,
  0x38, 0xdb, 0xec, 0xfd, 0xfe, 0x2a, 0x2b, 0x11, 0xcb, 0x14, 0x1c, 0x24,
  0x24, 0x09, 0x20, 0x04, 0xed, 0xe4, 0x02, 0xf9, 0x01, 0x7f, 0xfe, 0x18,
  0xf8, 0x06, 0xfc, 0xe8, 0xf0, 0xf1, 0x81, 0xdf, 0x2d, 0x0f, 0xe0, 0x46,
  0xb6, 0x58, 0x46, 0x1d, 0xf5, 0x23, 0xd3, 0x0e, 0x12, 0xf5, 0x1a, 0x21,
  0x02, 0x24, 0xce, 0xd9, 0x08, 0x15, 0x14, 0xe7, 0xf4, 0xf1, 0x13, 0x1a,
  0x0f, 0x0a, 0x06, 0x06, 0xda, 0x7f, 0x29, 0x10, 0x17, 0x09, 0x35, 0x23,
  0xd2, 0x0f, 0x96, 0xba, 0x10, 0xbf, 0xe2, 0xb7, 0x5d, 0x43, 0x4f, 0x10,
  0xe2, 0x46, 0x21, 0x2e, 0xe7, 0xfa, 0x7f, 0x02, 0x08, 0x3b, 0x21, 0x10,
  0x06, 0x0f, 0xf8, 0x12, 0x1b, 0x04, 0xf3, 0xf7, 0xf1, 0xf3, 0x05, 0x04,
  0x10, 0x7f, 0xed, 0xf2, 0x09, 0xf2, 0xfe, 0x1e, 0x09, 0x16, 0x20, 0xc7,
  0x1d, 0x17, 0xe2, 0xff, 0x12, 0x32, 0x55, 0xf7, 0xe5, 0x18, 0xeb, 0x17,
  0x23, 0x06, 0x39, 0x7f, 0x19, 0xe6, 0x37, 0x10, 0x1f, 0x32, 0x16, 0x3f,
  0x29, 0x0d, 0x30, 0x19, 0xb6, 0xed, 0xee, 0x00, 0x32, 0x7f, 0x10, 0x13,
  0xe5, 0xfb, 0xf7, 0xf4, 0x0d, 0x0a, 0x81, 0xfa, 0xf8, 0x15, 0xec, 0x0c,
  0x0a, 0x38, 0x15, 0xd2, 0xe9, 0x0d, 0x03, 0xdb, 0x28, 0xff, 0xfd, 0x34,
  0xfe, 0xf7, 0xe9, 0x02, 0x15, 0x07, 0x81, 0x05, 0x00, 0xd2, 0xea, 0x03,
  0x2f, 0x27, 0x57, 0x34, 0xf0, 0x0c, 0xba, 0xf2, 0xdb, 0xf9, 0xfc, 0x27,
  0x11, 0x19, 0x0e, 0xa4, 0xf5, 0x16, 0x1a, 0x30, 0xd8, 0xb6, 0xc9, 0xaf,
  0x20, 0xea, 0xd5, 0xa7, 0x81, 0xba, 0xf8, 0x00, 0x29, 0x33, 0xd8, 0xf6,
  0xc1, 0xed, 0x81, 0x9d, 0xf0, 0xea, 0xb0, 0xf9, 0xf7, 0xa4, 0x07, 0xd7,
  0xd1, 0xc2, 0xef, 0xbd, 0xe3, 0xab, 0xf1, 0x83, 0xfc, 0xd6, 0xe1, 0x7f,
  0xb6, 0x09, 0x31, 0x03, 0x44, 0x68, 0x57, 0x36, 0x1e, 0x4d, 0xef, 0xcb,
  0x24, 0x12, 0xf3, 0x57, 0xfd, 0xf7, 0xd8, 0xb5, 0x11, 0xfc, 0x81, 0xf7,
  0x14, 0x30, 0x02, 0x22, 0x1e, 0x08, 0x06, 0x32, 0xd6, 0xea, 0xed, 0xf4,
  0xf4, 0x11, 0x01, 0xf1, 0xed, 0xe5, 0x16, 0x7f, 0xb7, 0x00, 0xb0, 0xf9,
  0xf7, 0x02, 0x44, 0xcb, 0x11, 0xd2, 0x4c, 0x49, 0x4b, 0xd8, 0xe7, 0xf6,
  0x0e, 0xde, 0x94, 0xf7, 0xb2, 0x61, 0xb0, 0x81, 0xdb, 0x0a, 0x14, 0x0d,
  0xed, 0xfd, 0xfe, 0x06, 0x12, 0x7a, 0x04, 0xfa, 0x06, 0xf6, 0xf4, 0xde,
  0xeb, 0xdc, 0xe4, 0x09, 0x32, 0xe9, 0x1c, 0x20, 0x25, 0xec, 0x1f, 0xf9,
  0xf4, 0x07, 0x33, 0x81, 0xc2, 0xf1, 0x04, 0xfc, 0x28, 0xec, 0xff, 0x08,
  0xf4, 0xe9, 0x7f, 0x0e, 0x21, 0x20, 0x0a, 0x43, 0xbd, 0x1b, 0xf5, 0x02,
  0x65, 0xa9, 0x05, 0x2e, 0xc4, 0x34, 0xc9, 0xd4, 0xd5, 0x1e, 0xbb, 0xf5,
  0x0c, 0x09, 0x01, 0x00, 0x15, 0x09, 0xd8, 0x19, 0x32, 0x0f, 0x4d, 0x81,
  0xae, 0x3c, 0x00, 0x4f, 0x05, 0x3b, 0xd7, 0x31, 0x5b, 0xe5, 0xb8, 0x47,
  0xe5, 0x45, 0xdf, 0xd2, 0xe2, 0x48, 0x2d, 0x20, 0x23, 0x81, 0x22, 0x1c,
  0x13, 0x00, 0x65, 0x53, 0xfd, 0x1a, 0x30, 0x1d, 0x1c, 0xd5, 0x1a, 0x00,
  0x05, 0x7f, 0x1b, 0x1c, 0xb9, 0xf9, 0xec, 0x5f, 0x0d, 0x15, 0xf9, 0x31,
  0x15, 0x43, 0x3c, 0x0e, 0xf7, 0x81, 0xcf, 0xc0, 0xe8, 0xc2, 0x0b, 0x20,
  0xec, 0xd6, 0xc3, 0xb7, 0x99, 0x07, 0x9f, 0x04, 0xf0, 0xf2, 0xf8, 0xd0,
  0x06, 0xd8, 0x10, 0x7f, 0x93, 0x07, 0xed, 0xd2, 0xce, 0x17, 0x07, 0x4c,
  0x09, 0x24, 0x4c, 0x59, 0xe8, 0x22, 0x06, 0x16, 0xf8, 0x5b, 0x07, 0x55,
  0xfd, 0xf4, 0x31, 0x61, 0x7f, 0x58, 0x21, 0xc0, 0x01, 0xe2, 0x14, 0x35,
  0x09, 0x5a, 0xcb, 0xfc, 0xe2, 0xfd, 0x0d, 0x41, 0xba, 0x16, 0x41, 0x03,
  0x7a, 0x09, 0x2a, 0x48, 0x47, 0x56, 0xd9, 0xf8, 0x40, 0xea, 0x7f, 0x68,
  0x95, 0xd5, 0xdc, 0xf9, 0xaa, 0xd2, 0xa8, 0x08, 0x81, 0xf7, 0x36, 0x36,
  0xd3, 0x2c, 0xe7, 0x2c, 0x2f, 0x0e, 0x17, 0x45, 0x20, 0x6b, 0x19, 0x1b,
  0xbd, 0x2b, 0x05, 0xd8, 0x3e, 0xe3, 0xf8, 0xf1, 0x2f, 0x18, 0x9f, 0x00,
  0xc1, 0xde, 0x27, 0xca, 0xd9, 0xec, 0x5f, 0x81, 0x15, 0xb0, 0x0e, 0xe3,
  0xa3, 0xd7, 0x10, 0xee, 0xdb, 0xe5, 0x7f, 0x3a, 0x55, 0xc3, 0x24, 0xdd,
  0x01, 0x0d, 0xf2, 0xe3, 0x11, 0x71, 0x55, 0xf7, 0x08, 0x29, 0x3d, 0x2b,
  0xe4, 0x1c, 0x66, 0xed, 0xd7, 0x23, 0xdc, 0xca, 0x50, 0x57, 0x5a, 0x7f,
  0x19, 0x65, 0x91, 0x41, 0x24, 0xc1, 0xca, 0xe8, 0x04, 0xea, 0x3f, 0x0f,
  0x7f, 0xdc, 0x25, 0x1f, 0x2d, 0x05, 0xab, 0xec, 0x91, 0xfa, 0xea, 0xc8,
  0x0f, 0xed, 0xf6, 0x27, 0x10, 0xe3, 0xf4, 0xd2, 0xf3, 0x39, 0xdf, 0x81,
  0x1a, 0xfd, 0xe6, 0xed, 0x1a, 0x58, 0xf5, 0x25, 0x44, 0xfb, 0x51, 0xd1,
  0x81, 0xec, 0x08, 0x08, 0x01, 0x53, 0xc0, 0x23, 0x21, 0x35, 0x22, 0x13,
  0x1b, 0x3b, 0xe3, 0xf6, 0x2f, 0xd5, 0x0c, 0x2e, 0x2c, 0x7f, 0x02, 0xe1,
  0xe9, 0x00, 0x00, 0x16, 0x33, 0x1e, 0xd4, 0xcf, 0x1c, 0x0e, 0xe9, 0xf5,
  0xe6, 0xeb, 0x0a, 0x19, 0x04, 0x01, 0x20, 0x81, 0x02, 0x0e, 0x10, 0x02,
  0x00, 0x21, 0xe4, 0x24, 0xff, 0xe0, 0x7f, 0x00, 0xc8, 0xf6, 0xf6, 0xd5,
  0xa8, 0x45, 0xd0, 0x02, 0xe6, 0x26, 0x0a, 0xfd, 0x42, 0xf6, 0xde, 0x14,
  0xa2, 0xe9, 0xad, 0x36, 0xa7, 0x0d, 0xfa, 0x03, 0x02, 0x14, 0x06, 0xe4,
  0xf9, 0x0a, 0x01, 0x7f, 0x45, 0xfc, 0x02, 0xf9, 0xfd, 0x27, 0xfa, 0x0c,
  0x04, 0x24, 0x14, 0x37, 0x08, 0xec, 0xf2, 0xfd, 0xf5, 0xfe, 0xf3, 0x11,
  0x1a, 0x7f, 0xe4, 0x0d, 0x06, 0x12, 0xfe, 0xf6, 0x05, 0x1e, 0x7f, 0xc2,
  0xbf, 0x2d, 0x09, 0xe7, 0xee, 0xfe, 0xe5, 0xe2, 0xc9, 0xf2, 0x12, 0xb8,
  0xea, 0xed, 0x14, 0x5f, 0x0e, 0xf4, 0x15, 0x04, 0xe7, 0x1f, 0xe6, 0xd8,
  0x12, 0xff, 0xef, 0xff, 0xf0, 0x25, 0xf3, 0xf3, 0x19, 0x7f, 0x0d, 0x10,
  0x1a, 0x12, 0x08, 0x06, 0x14, 0xf6, 0xbd, 0x29, 0xc4, 0xab, 0x01, 0xf5,
  0x33, 0x0e, 0x07, 0xd4, 0xc4, 0x06, 0xdf, 0x7f, 0x18, 0x16, 0x16, 0x11,
  0x10, 0x47, 0xee, 0xf4, 0x45, 0xe8, 0xde, 0x3e, 0x07, 0x1b, 0x4b, 0x1c,
  0x5f, 0xd6, 0xf0, 0x26, 0x81, 0x2e, 0xd0, 0xa0, 0xf5, 0xf5, 0x21, 0xd7,
  0x2d, 0x06, 0x4d, 0x3e, 0x1a, 0xea, 0xf9, 0xf2, 0xfd, 0xf9, 0xea, 0xeb,
  0x0f, 0xe1, 0x43, 0x81, 0x03, 0x0f, 0xee, 0xff, 0xf5, 0x18, 0x12, 0xea,
  0x8a, 0x37, 0xe1, 0xa5, 0x9f, 0xdb, 0xff, 0xf7, 0xf3, 0xb7, 0x04, 0xe2,
  0x1a, 0x40, 0x7f, 0x25, 0xc7, 0x2a, 0xee, 0x22, 0xc0, 0xe9, 0xee, 0xa4,
  0x15, 0xe7, 0xda, 0x8d, 0xf4, 0x2d, 0xee, 0x3d, 0xe4, 0xed, 0x51, 0xea,
  0x81, 0xe4, 0xa3, 0x5d, 0xfb, 0xe8, 0x12, 0x4d, 0xd4, 0x81, 0xe6, 0xf2,
  0x3d, 0x29, 0xd2, 0x03, 0x14, 0x01, 0x04, 0x02, 0xfb, 0x98, 0x95, 0xc2,
  0x35, 0xff, 0xf6, 0x39, 0xd0, 0x18, 0x1f, 0xf8, 0xa1, 0xc0, 0xc2, 0x30,
  0xfe, 0xf4, 0x11, 0x1b, 0x5f, 0xca, 0xde, 0x84, 0xff, 0xe4, 0xf9, 0x81,
  0xa1, 0xc8, 0xdb, 0xd1, 0x2b, 0x86, 0xd2, 0x12, 0xf5, 0x2f, 0x1b, 0xf8,
  0x26, 0x04, 0x2b, 0x21, 0x07, 0x81, 0xb5, 0xdf, 0xf2, 0x01, 0x1a, 0x17,
  0x12, 0xe4, 0xc7, 0x94, 0xee, 0x13, 0x29, 0x0a, 0xfe, 0xed, 0x03, 0xed,
  0x11, 0xf4, 0x03, 0x81, 0xc0, 0xe6, 0xfe, 0xfa, 0xfc, 0xfb, 0xfc, 0xff,
  0x81, 0xd7, 0x10, 0xe3, 0x1a, 0x05, 0xfe, 0x30, 0xfc, 0x37, 0x28, 0x16,
  0x13, 0x45, 0x21, 0x2a, 0xda, 0x79, 0x05, 0x39, 0x20, 0xf6, 0xa4, 0xcb,
  0xdf, 0x9f, 0x2b, 0x47, 0x34, 0x3e, 0x47, 0xf6, 0xc3, 0xfe, 0xa8, 0x81,
  0x29, 0xeb, 0x06, 0xe8, 0xe7, 0x4a, 0xc0, 0x18, 0x1d, 0x81, 0xe4, 0xe9,
  0x13, 0x46, 0x14, 0x01, 0x13, 0x10, 0x26, 0xee, 0xea, 0xb1, 0xbd, 0xf6,
  0x09, 0x1e, 0x17, 0x0b, 0xd2, 0x09, 0x2f, 0xb6, 0xe8, 0x4c, 0x09, 0x02,
  0xfe, 0xdd, 0x0c, 0x26, 0xe3, 0xfc, 0x15, 0x7f, 0x2d, 0xf3, 0xfb, 0x41,
  0x06, 0xc7, 0xfa, 0x22, 0xda, 0x35, 0x8c, 0xf1, 0xa3, 0x81, 0xe1, 0xd2,
  0xb9, 0x01, 0x72, 0x41, 0x2f, 0x7e, 0x59, 0x3a, 0xa0, 0xe5, 0xe5, 0xb8,
  0xcd, 0xd7, 0x0c, 0xfa, 0x0a, 0x31, 0x24, 0xfd, 0x00, 0xf9, 0xea, 0x10,
  0xf1, 0xea, 0x0f, 0x7f, 0x04, 0xfa, 0x13, 0xfc, 0xf9, 0xf9, 0x16, 0x12,
  0xe0, 0xc8, 0xa3, 0x52, 0xbc, 0x1e, 0x67, 0x31, 0x45, 0xd3, 0x81, 0xce,
  0xfa, 0x9e, 0xed, 0x40, 0x21, 0xf1, 0x24, 0x4a, 0x11, 0xe2, 0x81, 0x10,
  0x48, 0x2e, 0x50, 0xdc, 0x09, 0xf2, 0xfd, 0x30, 0x0f, 0xff, 0x1a, 0xe5,
  0x04, 0x33, 0xfd, 0x3d, 0x42, 0x22, 0xfd, 0x30, 0x18, 0x35, 0xb3, 0x16,
  0xe8, 0x01, 0x22, 0x32, 0x22, 0xe4, 0x13, 0xe9, 0x0d, 0x7f, 0x17, 0x06,
  0xde, 0x2f, 0xfb, 0xeb, 0x1c, 0xd2, 0x7e, 0x52, 0x03, 0xf2, 0xe3, 0x2d,
  0x55, 0x23, 0xf9, 0xdd, 0x3f, 0xd0, 0x52, 0x81, 0x41, 0x08, 0xa2, 0xf6,
  0x75, 0xbd, 0xb6, 0x31, 0xa9, 0x06, 0x15, 0x02, 0x06, 0x56, 0xe0, 0xf9,
  0x1d, 0xf6, 0x0e, 0x02, 0x0e, 0x81, 0xc8, 0xae, 0x14, 0x20, 0x32, 0xee,
  0xf8, 0xf9, 0x81, 0xf2, 0x33, 0x01, 0xf9, 0xf1, 0x00, 0xfe, 0x0d, 0x00,
  0xd2, 0xe1, 0xe7, 0x8e, 0xd4, 0xdb, 0x29, 0xef, 0x11, 0xe5, 0x01, 0xf8,
  0x7f, 0x31, 0xcf, 0x20, 0xe0, 0x9a, 0x85, 0xb8, 0x02, 0xf9, 0xd1, 0xdb,
  0xc7, 0x4d, 0xa8, 0x27, 0x29, 0xeb, 0x08, 0xe9, 0xf6, 0x26, 0xc7, 0xcd,
  0x39, 0xd9, 0xa6, 0xef, 0xfc, 0x4b, 0x32, 0xf8, 0x12, 0x31, 0x21, 0xf9,
  0x34, 0x5d, 0x58, 0x5f, 0x7f, 0xee, 0x6c, 0xdc, 0x2d, 0xc6, 0x25, 0x3e,
  0xe6, 0x98, 0x15, 0x21, 0x14, 0xd1, 0xda, 0xe2, 0x75, 0x81, 0x3d, 0x11,
  0x11, 0x6e, 0x45, 0x31, 0xe6, 0x1e, 0xc7, 0xfc, 0xef, 0x54, 0xf9, 0x61,
  0xd8, 0x1d, 0x38, 0x16, 0x78, 0x7f, 0x38, 0xa1, 0x4d, 0xe1, 0xee, 0x4f,
  0x06, 0x68, 0xe3, 0x33, 0xf9, 0x0f, 0xce, 0xef, 0x08, 0xe4, 0xe7, 0xf7,
  0xfa, 0x12, 0x06, 0xf2, 0x04, 0x7f, 0x20, 0x0c, 0x04, 0x07, 0xff, 0x2a,
  0x04, 0xf9, 0x69, 0x5c, 0x0f, 0x58, 0x15, 0x35, 0x45, 0x4a, 0x3a, 0x21,
  0xd9, 0x2e, 0xa4, 0x31, 0x7f, 0x00, 0xf5, 0xac, 0xa8, 0xec, 0xb6, 0xc3,
  0xff, 0x22, 0x81, 0xf8, 0x1b, 0x27, 0x08, 0x2d, 0x0e, 0x17, 0x2a, 0x0d,
  0xfa, 0x3c, 0x2c, 0xe0, 0xfb, 0x11, 0xff, 0x00, 0x04, 0xff, 0x29, 0x0f,
  0xe8, 0x09, 0xff, 0xe8, 0xec, 0xf3, 0x0a, 0x0f, 0xf6, 0xf4, 0x06, 0x7f,
  0x08, 0x08, 0x15, 0xfb, 0x0c, 0x0f, 0x04, 0xf3, 0x88, 0x0c, 0xe4, 0x02,
  0xcc, 0x1d, 0xd9, 0x01, 0x04, 0xca, 0xef, 0x1c, 0xe0, 0x81, 0xd0, 0xd1,
  0x24, 0xf2, 0xd2, 0x28, 0x10, 0xda, 0x2b, 0x03, 0xcc, 0x09, 0xf1, 0x0d,
  0xfa, 0x07, 0x1b, 0x03, 0x10, 0x08, 0x0a, 0x7f, 0x1b, 0xdb, 0x08, 0x10,
  0xfc, 0x08, 0xf7, 0xfe, 0x2c, 0xf9, 0x55, 0xe4, 0xdc, 0xff, 0xf4, 0xc1,
  0x0a, 0xde, 0xe1, 0x29, 0xcd, 0x7f, 0xd8, 0x1e, 0x33, 0x0f, 0x22, 0x37,
  0xbf, 0xe8, 0x15, 0xd1, 0xfd, 0x9a, 0xce, 0x81, 0xbf, 0xeb, 0xe5, 0x12,
  0x0d, 0xb3, 0x2f, 0xd9, 0xf2, 0x09, 0xef, 0x34, 0x25, 0xa2, 0x50, 0xdc,
  0x06, 0x1d, 0x08, 0x13, 0x13, 0xf8, 0x04, 0xf7, 0xfe, 0x03, 0xf8, 0xf1,
  0xff, 0x7f, 0xdc, 0x04, 0x04, 0x07, 0x29, 0xf4, 0xea, 0x1c, 0xd0, 0xfb,
  0x13, 0x20, 0xe5, 0xe6, 0x29, 0x0c, 0xf2, 0x0f, 0x19, 0xf2, 0x39, 0x81,
  0xb7, 0x1c, 0xec, 0xfb, 0x00, 0x09, 0x08, 0x0a, 0x0f, 0xce, 0x07, 0xac,
  0xe0, 0xa8, 0xda, 0xfd, 0x1d, 0xf6, 0x2d, 0xd5, 0x2f, 0x81, 0x00, 0x11,
  0xf2, 0x11, 0x39, 0xca, 0xf2, 0xe1, 0xf1, 0xd2, 0x1a, 0x1a, 0xac, 0xc5,
  0xd8, 0xe0, 0x23, 0xd9, 0x91, 0xbe, 0xb5, 0x15, 0x81, 0xeb, 0x2c, 0x53,
  0xed, 0x98, 0x1a, 0x21, 0x18, 0x4b, 0x81, 0x17, 0x4a, 0x4c, 0xd8, 0xf8,
  0xf1, 0xe1, 0x22, 0x4d, 0xbd, 0x85, 0xe8, 0xda, 0x0f, 0x28, 0xf7, 0x2d,
  0xf3, 0xef, 0x68, 0x1a, 0x81, 0x0d, 0x16, 0x23, 0xec, 0x2b, 0x34, 0x00,
  0x22, 0x4e, 0x4b, 0x1e, 0x5e, 0xad, 0xf0, 0xfb, 0xfa, 0xdd, 0x0f, 0x52,
  0x7f, 0x23, 0x08, 0x1e, 0x2a, 0xe0, 0xe6, 0x08, 0xf7, 0x1b, 0xf9, 0xf6,
  0x19, 0xf6, 0x11, 0x30, 0x14, 0xf7, 0x15, 0xeb, 0x2b, 0x0f, 0x7f, 0xde,
  0x0b, 0x22, 0x3a, 0x08, 0x4c, 0xf0, 0xf6, 0x35, 0xf7, 0x03, 0xe8, 0x45,
  0x2c, 0x30, 0xe3, 0xf9, 0x20, 0xdf, 0xe6, 0x00, 0xc2, 0xc5, 0x7f, 0xe8,
  0xae, 0xe6, 0x16, 0x46, 0xf6, 0xb7, 0xf5, 0x05, 0xbf, 0xbd, 0xd2, 0x28,
  0x07, 0xc7, 0x04, 0xd2, 0x27, 0x0e, 0x36, 0x2b, 0x26, 0x7f, 0x43, 0x71,
  0x6e, 0xe5, 0x07, 0x02, 0x32, 0x23, 0xc5, 0x7c, 0xa8, 0x69, 0xf1, 0x05,
  0xf8, 0x30, 0x11, 0xb6, 0x20, 0xcb, 0x16, 0x9d, 0x81, 0xea, 0xe9, 0xeb,
  0x01, 0xb3, 0xea, 0xd3, 0x6b, 0x97, 0x93, 0x0d, 0xe5, 0xee, 0x19, 0x2d,
  0x2c, 0xc1, 0x7c, 0xe2, 0x7f, 0xfe, 0xc2, 0x4d, 0x2f, 0xf0, 0x24, 0xe0,
  0x06, 0xf3, 0x2f, 0x99, 0x3a, 0xc8, 0xdd, 0xd6, 0x55, 0xdd, 0x29, 0xed,
  0xc1, 0xbf, 0xf8, 0x81, 0xd3, 0xb7, 0xfe, 0xd2, 0xd0, 0xb2, 0xff, 0xc1,
  0xfc, 0xac, 0xb3, 0xd9, 0xc9, 0x2f, 0x10, 0xcb, 0x12, 0xd7, 0xc0, 0xfe,
  0x7f, 0xff, 0xeb, 0xe0, 0x0f, 0x1c, 0xee, 0x0e, 0xb8, 0xbd, 0xe7, 0xa3,
  0xe9, 0xd4, 0x3b, 0xf0, 0x4d, 0x10, 0xd3, 0x3a, 0xbe, 0xfb, 0x4a, 0xf6,
  0x7f, 0xbf, 0xef, 0x2e, 0xcf, 0x12, 0x0b, 0xed, 0xe9, 0x62, 0xa3, 0x4a,
  0xed, 0xf7, 0x14, 0xdb, 0x0d, 0xd8, 0xb8, 0xc4, 0xe3, 0xd3, 0xf5, 0xef,
  0x19, 0xe4, 0xf3, 0xed, 0x09, 0x2d, 0xf0, 0x81, 0xc3, 0x02, 0xf5, 0x00,
  0xfd, 0x20, 0xf3, 0xf2, 0x7f, 0x1c, 0xb1, 0x28, 0x2c, 0xf8, 0xe7, 0xd8,
  0x16, 0x0f, 0xf8, 0x00, 0xe8, 0xe6, 0xea, 0xef, 0xff, 0xe9, 0x3c, 0x0a,
  0xdd, 0x04, 0x0f, 0x81, 0xe4, 0x00, 0x1e, 0x01, 0x15, 0xe6, 0x02, 0xd9,
  0xf9, 0x0f, 0xf3, 0xa2, 0xac, 0xe5, 0xed, 0x1e, 0x02, 0x39, 0xe6, 0x1a,
  0xae, 0xf4, 0xbd, 0x81, 0xd8, 0xea, 0xca, 0x1e, 0xf6, 0xed, 0xc4, 0xd8,
  0xe7, 0x0b, 0x8e, 0xe0, 0x12, 0xfd, 0xea, 0xfc, 0x13, 0x9f, 0x18, 0x08,
  0xe9, 0xeb, 0x0a, 0x10, 0x0b, 0xea, 0x15, 0xf3, 0x13, 0x11, 0x18, 0x7f,
  0x22, 0xf2, 0x03, 0xff, 0x00, 0xe2, 0xf9, 0x02, 0x28, 0x8e, 0xee, 0x8e,
  0x86, 0x81, 0xc7, 0xe0, 0x09, 0x11, 0xfc, 0xda, 0x6e, 0x23, 0x07, 0x0e,
  0xc3, 0x67, 0x1f, 0x9d, 0x22, 0x0a, 0xe8, 0xe9, 0xec, 0x4b, 0x38, 0x7f,
  0x11, 0x0f, 0x5b, 0x29, 0x05, 0x53, 0xd6, 0x27, 0x41, 0xeb, 0x1f, 0x01,
  0x54, 0x58, 0xd6, 0xe2, 0x1e, 0xc9, 0xe4, 0x1f, 0x35, 0xe8, 0x1a, 0xda,
  0xb5, 0xdd, 0xda, 0xd0, 0xb2, 0x28, 0x81, 0x15, 0x0a, 0xf8, 0xf8, 0xaa,
  0x16, 0x2b, 0x26, 0x07, 0xba, 0x36, 0x09, 0x72, 0x7f, 0x6c, 0x77, 0x06,
  0x08, 0x5e, 0xb9, 0x4f, 0x41, 0x03, 0xf5, 0x0a, 0x0e, 0x2e, 0x88, 0x0a,
  0xe9, 0xab, 0xd2, 0x05, 0xfd, 0xda, 0xe9, 0xe6, 0x09, 0xf0, 0x11, 0x1e,
  0xe3, 0x9c, 0x81, 0x20, 0xde, 0x06, 0x1c, 0x16, 0xfc, 0x00, 0x81, 0x3a,
  0x86, 0xe1, 0x0a, 0x1b, 0x39, 0x24, 0xf2, 0xf7, 0xea, 0x0b, 0xf1, 0x4e,
  0x32, 0x17, 0xef, 0x16, 0xe6, 0xfb, 0xd0, 0xe4, 0x72, 0x32, 0x81, 0xe2,
  0xf5, 0x00, 0x54, 0x89, 0x95, 0xbd, 0x13, 0xad, 0xf4, 0x26, 0xdf, 0x2e,
  0x09, 0x4c, 0x3b, 0xa3, 0x7a, 0x04, 0x3e, 0xca, 0x10, 0xf8, 0xf4, 0xd0,
  0xd7, 0x32, 0x4f, 0x3e, 0x36, 0xf7, 0x7f, 0xef, 0x3f, 0x02, 0x02, 0x03,
  0xff, 0xf0, 0x32, 0x2e, 0x0d, 0xef, 0x07, 0x0b, 0xf7, 0x0d, 0x08, 0xf2,
  0x07, 0xf6, 0x01, 0x08, 0x0e, 0x7f, 0x07, 0xf4, 0xff, 0x06, 0xf7, 0xff,
  0xf6, 0x00, 0xab, 0xa5, 0x9b, 0x8d, 0xf1, 0xf9, 0x10, 0x7f, 0x40, 0x28,
  0xac, 0x03, 0xb4, 0xad, 0xaa, 0x0e, 0x17, 0xf8, 0x2b, 0x28, 0x99, 0xf2,
  0xea, 0x1d, 0xfa, 0xfe, 0x7f, 0x23, 0x1a, 0x2c, 0x1d, 0x5c, 0xf7, 0x3e,
  0xad, 0x31, 0xd7, 0x4b, 0x08, 0x2f, 0x02, 0x6b, 0xc3, 0xdc, 0x3c, 0xe3,
  0x2c, 0x03, 0xd7, 0x12, 0xd0, 0xdd, 0xe5, 0xf1, 0x21, 0xe2, 0x68, 0x81,
  0xfe, 0xe8, 0x12, 0xf4, 0x08, 0xd5, 0xf2, 0x19, 0x14, 0x2a, 0x3f, 0xf2,
  0x3b, 0xf8, 0x28, 0xf7, 0xc3, 0xf8, 0x17, 0x03, 0x05, 0x7f, 0xea, 0x19,
  0x02, 0xf9, 0xfc, 0xcc, 0xf4, 0xeb, 0xfd, 0x39, 0xc7, 0xf6, 0xed, 0x02,
  0x2c, 0xfe, 0xff, 0xf6, 0x0b, 0x14, 0x16, 0x63, 0xfa, 0xf3, 0xe9, 0x0a,
  0x7f, 0xee, 0xf1, 0x27, 0x34, 0x22, 0x23, 0x5f, 0x71, 0xeb, 0xdc, 0xe2,
  0xe6, 0x0c, 0xe8, 0x17, 0xe9, 0x2d, 0x81, 0x28, 0x2b, 0xfe, 0x12, 0xfa,
  0x09, 0x1c, 0x94, 0xd2, 0xca, 0xc1, 0xa0, 0x28, 0x07, 0x2f, 0xf2, 0xe9,
  0xb4, 0x12, 0xe2, 0x81, 0xfa, 0x2f, 0x08, 0xed, 0xc4, 0xb8, 0xd5, 0xfa,
  0x81, 0x20, 0x2c, 0x2a, 0x41, 0xbc, 0x52, 0x0a, 0x0e, 0x13, 0x07, 0x15,
  0x06, 0x47, 0xdb, 0x65, 0xcd, 0x40, 0x05, 0x42, 0xe6, 0x04, 0x81, 0xcf,
  0xfd, 0xde, 0xea, 0xe2, 0x17, 0x0d, 0x00, 0xc4, 0xf3, 0x17, 0x0e, 0xde,
  0xd3, 0xf3, 0xe4, 0xed, 0xfa, 0xde, 0xdb, 0x2c, 0x42, 0x63, 0xef, 0x22,
  0x7f, 0x59, 0x7c, 0x03, 0x7c, 0x4a, 0xd0, 0x6f, 0x93, 0x5b, 0xfe, 0x26,
  0xb3, 0x07, 0x28, 0x1c, 0xed, 0xa5, 0xf9, 0xca, 0xb7, 0xb9, 0x81, 0xc7,
  0x91, 0xa9, 0x11, 0xaf, 0x00, 0xa0, 0xb4, 0xce, 0x9e, 0xd1, 0xcc, 0xf2,
  0xee, 0xdb, 0x4f, 0x0b, 0x81, 0xdf, 0xc6, 0xea, 0x20, 0xf6, 0xf5, 0xeb,
  0xfd, 0xf4, 0xe4, 0xd3, 0xf1, 0xaf, 0xed, 0x0a, 0x0a, 0xca, 0x0d, 0xde,
  0x09, 0xf4, 0xe5, 0xe6, 0xc1, 0xe2, 0xf3, 0x0f, 0x3b, 0x3f, 0x22, 0xd1,
  0xce, 0x14, 0xce, 0x7f, 0x03, 0xe1, 0xfb, 0x34, 0x5c, 0xe5, 0xc6, 0x12,
  0x05, 0x0e, 0x1a, 0x0e, 0xf1, 0xfe, 0x17, 0xf4, 0x00, 0xf2, 0x23, 0xeb,
  0xfc, 0x7f, 0x28, 0x10, 0xee, 0x06, 0xfe, 0x14, 0xf1, 0xd1, 0xfd, 0x0e,
  0xd6, 0x14, 0x19, 0xeb, 0x02, 0x05, 0x21, 0xf6, 0x0f, 0xf3, 0x0e, 0x7f,
  0x1e, 0x05, 0xf3, 0x2d, 0x0f, 0xe5, 0x04, 0xfb, 0x22, 0xcd, 0x23, 0xe5,
  0xd4, 0xff, 0x12, 0x16, 0xec, 0xe7, 0x3d, 0xed, 0x7f, 0xda, 0x3f, 0x0d,
  0x10, 0x06, 0x00, 0x36, 0x23, 0xe2, 0x01, 0x20, 0xfd, 0xf6, 0xf3, 0xd8,
  0x06, 0xfa, 0x38, 0xe9, 0x1d, 0xf7, 0xfb, 0x7f, 0xfd, 0xe9, 0xf6, 0xfc,
  0x50, 0x16, 0xe2, 0xf3, 0x09, 0xea, 0x2d, 0xf8, 0x11, 0x27, 0xed, 0x01,
  0x11, 0xfd, 0x19, 0xe6, 0xe0, 0x7f, 0x1d, 0xf9, 0x04, 0x05, 0xff, 0xe9,
  0xcf, 0xe2, 0x7f, 0xc6, 0x8b, 0x32, 0xe7, 0x4a, 0x28, 0x02, 0x0e, 0xd6,
  0xe5, 0xdf, 0xd9, 0xde, 0xd4, 0xc8, 0x08, 0x2f, 0x2b, 0x4f, 0x0f, 0xc4,
  0x1d, 0x7f, 0xd1, 0x38, 0x47, 0x4a, 0x0c, 0x2a, 0x6b, 0x5c, 0x29, 0x5c,
  0xc7, 0x07, 0xf9, 0xff, 0x3f, 0x19, 0x22, 0x39, 0x90, 0x11, 0x10, 0x16,
  0xee, 0x2b, 0x45, 0x7f, 0x3d, 0x02, 0x76, 0xe0, 0x24, 0x3d, 0xd2, 0x03,
  0x11, 0xe7, 0xe3, 0xfd, 0x4b, 0x4b, 0x22, 0xb6, 0xb8, 0x21, 0xc2, 0xf8,
  0xef, 0x12, 0xff, 0x11, 0xf0, 0x16, 0xcc, 0x1a, 0xfa, 0x7f, 0x3e, 0x0e,
  0x0a, 0x20, 0x09, 0xf5, 0xf8, 0x0e, 0x81, 0xe8, 0x05, 0x25, 0x31, 0xf3,
  0x10, 0xdd, 0xf7, 0xdc, 0xfc, 0xec, 0xf6, 0x05, 0xba, 0xfc, 0xf2, 0x31,
  0x56, 0x2a, 0xfa, 0x09, 0x0b, 0x14, 0x0e, 0x17, 0xed, 0x1b, 0x13, 0x00,
  0xf1, 0xf9, 0x05, 0x10, 0x1a, 0x7f, 0x1c, 0xea, 0xd8, 0xfd, 0x01, 0x16,
  0x08, 0xf6, 0x7e, 0xbf, 0x43, 0x6a, 0x02, 0x64, 0x1d, 0x47, 0x84, 0xfa,
  0x17, 0x1c, 0x7f, 0x4b, 0xbf, 0xf5, 0x4b, 0xfd, 0x96, 0xf6, 0x1d, 0xe5,
  0x1b, 0x2b, 0xe5, 0x5f, 0x59, 0x33, 0xe8, 0xa7, 0x3e, 0x5b, 0xf6, 0xb0,
  0x25, 0x7f, 0xdc, 0x30, 0x47, 0x03, 0x4e, 0x42, 0x03, 0xec, 0x81, 0x9d,
  0x8f, 0xa1, 0x9e, 0x9c, 0x0e, 0x40, 0x11, 0x2f, 0xc5, 0x04, 0xb5, 0xea,
  0x96, 0xff, 0xf6, 0x0d, 0x5a, 0xf9, 0x07, 0xdf, 0x02, 0xd3, 0xff, 0xff,
  0x04, 0x00, 0x00, 0x00, 0x00, 0x02, 0x00, 0x00, 0x9c, 0xf4, 0xff, 0xff,
  0xe2, 0xe9, 0xff, 0xff, 0xfa, 0xfc, 0xff, 0xff, 0x53, 0xed, 0xff, 0xff,
  0x1d, 0xff, 0xff, 0xff, 0x1f, 0xf2, 0xff, 0xff, 0x55, 0xfd, 0xff, 0xff,
  0x84, 0xf6, 0xff, 0xff, 0x59, 0xfa, 0xff, 0xff, 0x77, 0xf6, 0xff, 0xff,
  0x7e, 0xf6, 0xff, 0xff, 0xce, 0xf4, 0xff, 0xff, 0xb5, 0x05, 0x00, 0x00,
  0xac, 0xf2, 0xff, 0xff, 0x22, 0xf5, 0xff, 0xff, 0xd5, 0xf3, 0xff, 0xff,
  0xaf, 0xf3, 0xff, 0xff, 0x6a, 0xf5, 0xff, 0xff, 0x51, 0xfd, 0xff, 0xff,
  0x95, 0xf6, 0xff, 0xff, 0x97, 0xeb, 0xff, 0xff, 0x11, 0xf4, 0xff, 0xff,
  0xb8, 0xf2, 0xff, 0xff, 0xcd, 0xe6, 0xff, 0xff, 0xb2, 0xfc, 0xff, 0xff,
  0x01, 0x06, 0x00, 0x00, 0x8a, 0xfa, 0xff, 0xff, 0xcb, 0x02, 0x00, 0x00,
  0x28, 0xf6, 0xff, 0xff, 0x00, 0xf9, 0xff, 0xff, 0xbe, 0xfd, 0xff, 0xff,
  0xba, 0xe8, 0xff, 0xff, 0x21, 0xf8, 0xff, 0xff, 0x25, 0xf4, 0xff, 0xff,
  0x87, 0xff, 0xff, 0xff, 0x1f, 0xfa, 0xff, 0xff, 0x99, 0x02, 0x00, 0x00,
  0xc8, 0xf2, 0xff, 0xff, 0xa7, 0xf0, 0xff, 0xff, 0x89, 0xf2, 0xff, 0xff,
  0xa6, 0xf8, 0xff, 0xff, 0x14, 0xf4, 0xff, 0xff, 0xeb, 0xfc, 0xff, 0xff,
  0x33, 0xfa, 0xff, 0xff, 0xee, 0xda, 0xff, 0xff, 0x74, 0x08, 0x00, 0x00,
  0x2e, 0xf2, 0xff, 0xff, 0x5d, 0xe5, 0xff, 0xff, 0xc7, 0xed, 0xff, 0xff,
  0x59, 0x00, 0x00, 0x00, 0xda, 0xec, 0xff, 0xff, 0x72, 0x00, 0x00, 0x00,
  0x8c, 0xf2, 0xff, 0xff, 0xa9, 0xfd, 0xff, 0xff, 0x93, 0x00, 0x00, 0x00,
  0x86, 0xf7, 0xff, 0xff, 0x70, 0xef, 0xff, 0xff, 0xcd, 0xf4, 0xff, 0xff,
  0xc2, 0xed, 0xff, 0xff, 0x99, 0xfe, 0xff, 0xff, 0xd6, 0xfd, 0xff, 0xff,
  0x46, 0xea, 0xff, 0xff, 0xa6, 0xef, 0xff, 0xff, 0x7b, 0xe6, 0xff, 0xff,
  0x79, 0xed, 0xff, 0xff, 0x9f, 0x07, 0x00, 0x00, 0xe8, 0xf8, 0xff, 0xff,
  0x34, 0xf7, 0xff, 0xff, 0x0c, 0xff, 0xff, 0xff, 0x37, 0xf9, 0xff, 0xff,
  0x03, 0xfb, 0xff, 0xff, 0x84, 0xf7, 0xff, 0xff, 0x57, 0xfe, 0xff, 0xff,
  0x6f, 0xf0, 0xff, 0xff, 0xf4, 0xfc, 0xff, 0xff, 0x15, 0xfb, 0xff, 0xff,
  0x70, 0xf8, 0xff, 0xff, 0xe0, 0xf4, 0xff, 0xff, 0x2b, 0xf8, 0xff, 0xff,
  0xe7, 0xf9, 0xff, 0xff, 0xbd, 0xfe, 0xff, 0xff, 0x7b, 0xef, 0xff, 0xff,
  0x58, 0xfd, 0xff, 0xff, 0x59, 0x00, 0x00, 0x00, 0xa2, 0xf7, 0xff, 0xff,
  0x33, 0x01, 0x00, 0x00, 0xf9, 0xf4, 0xff, 0xff, 0x16, 0xf0, 0xff, 0xff,
  0xef, 0xfc, 0xff, 0xff, 0xec, 0xe8, 0xff, 0xff, 0x12, 0xfe, 0xff, 0xff,
  0xd6, 0xf4, 0xff, 0xff, 0x09, 0xf7, 0xff, 0xff, 0x16, 0xf5, 0xff, 0xff,
  0xa8, 0xf3, 0xff, 0xff, 0xb7, 0xf4, 0xff, 0xff, 0x43, 0xf2, 0xff, 0xff,
  0x59, 0xf9, 0xff, 0xff, 0x21, 0x00, 0x00, 0x00, 0xc0, 0xf7, 0xff, 0xff,
  0xcf, 0xfe, 0xff, 0xff, 0x8d, 0xf5, 0xff, 0xff, 0x25, 0xf5, 0xff, 0xff,
  0x25, 0xee, 0xff, 0xff, 0xd8, 0xfb, 0xff, 0xff, 0x38, 0xf1, 0xff, 0xff,
  0xd5, 0xfb, 0xff, 0xff, 0x27, 0xff, 0xff, 0xff, 0xc2, 0xe8, 0xff, 0xff,
  0x53, 0x01, 0x00, 0x00, 0x8d, 0xed, 0xff, 0xff, 0xaf, 0xf8, 0xff, 0xff,
  0xab, 0x06, 0x00, 0x00, 0xa2, 0xf4, 0xff, 0xff, 0x05, 0xf9, 0xff, 0xff,
  0x1c, 0xf0, 0xff, 0xff, 0x55, 0xf9, 0xff, 0xff, 0xcc, 0xf6, 0xff, 0xff,
  0xe2, 0xf7, 0xff, 0xff, 0xfd, 0xfc, 0xff, 0xff, 0xf7, 0xee, 0xff, 0xff,
  0xd3, 0xee, 0xff, 0xff, 0x51, 0xfa, 0xff, 0xff, 0x54, 0xf7, 0xff, 0xff,
  0x7c, 0xfe, 0xff, 0xff, 0x7b, 0x05, 0x00, 0x00, 0xa7, 0xf1, 0xff, 0xff,
  0x1e, 0xf9, 0xff, 0xff, 0x0e, 0xd5, 0xff, 0xff, 0x04, 0x00, 0x00, 0x00,
  0x00, 0x20, 0x00, 0x00, 0x02, 0x03, 0xf7, 0xff, 0x22, 0x28, 0xe6, 0x00,
  0x0b, 0xfd, 0x1b, 0x1f, 0x03, 0x20, 0xe1, 0xde, 0x10, 0xe2, 0xbe, 0xb0,
  0xde, 0x15, 0x2c, 0xed, 0xea, 0xe4, 0xd8, 0x0c, 0xe3, 0xfb, 0x06, 0xf4,
  0x03, 0xb4, 0xb4, 0x1b, 0xe2, 0x18, 0x27, 0x0e, 0xfe, 0xdc, 0xed, 0x18,
  0x81, 0xfc, 0x08, 0xec, 0xf8, 0x43, 0xf3, 0xc3, 0x11, 0xe5, 0x15, 0x00,
  0xee, 0x12, 0x0a, 0xea, 0xea, 0x11, 0xe3, 0xf7, 0xca, 0x14, 0xfe, 0xd5,
  0x2d, 0xd1, 0xea, 0x09, 0xe5, 0xda, 0xfc, 0x06, 0x44, 0xe4, 0xe0, 0xe2,
  0xfc, 0xd4, 0x27, 0xfd, 0x15, 0x0d, 0xab, 0x1e, 0x07, 0x21, 0x09, 0xee,
  0x0a, 0xeb, 0x11, 0xf1, 0xff, 0x07, 0x0c, 0xf1, 0xe9, 0x7d, 0xfe, 0x00,
  0xf0, 0x04, 0xd7, 0x1f, 0xef, 0xe4, 0xe1, 0xfe, 0x1c, 0x01, 0x11, 0xd4,
  0xec, 0x0e, 0xc7, 0xfa, 0x15, 0xec, 0x05, 0xef, 0xf5, 0xcd, 0xcf, 0x2a,
  0x0c, 0xbf, 0xf3, 0xfb, 0x00, 0xf0, 0xd9, 0xf5, 0xda, 0xee, 0xec, 0xff,
  0xfe, 0xe7, 0xff, 0x1a, 0xfc, 0x05, 0xe9, 0x07, 0xf8, 0xff, 0xe8, 0xe6,
  0xf0, 0x08, 0xe3, 0x0c, 0x08, 0xc7, 0xf5, 0x02, 0x12, 0xf2, 0xee, 0x0a,
  0xda, 0xf3, 0xe5, 0x0d, 0xea, 0x35, 0x09, 0xf4, 0x42, 0x0c, 0xf0, 0x11,
  0xec, 0x1b, 0x00, 0xd8, 0x0a, 0xbf, 0x02, 0xf9, 0xd6, 0x08, 0xfc, 0xe7,
  0x07, 0xe2, 0x17, 0xe5, 0xba, 0xfd, 0xfc, 0x81, 0x0d, 0x08, 0xf2, 0x09,
  0xda, 0xda, 0x04, 0x14, 0x27, 0xc8, 0x02, 0xdf, 0xfe, 0xe4, 0xff, 0x07,
  0xfe, 0x10, 0xe5, 0x17, 0xfe, 0xed, 0xf6, 0xb1, 0x0a, 0xf5, 0x06, 0x06,
  0xfe, 0xed, 0xfb, 0xf7, 0xd3, 0xdb, 0xdf, 0x23, 0xe8, 0xf1, 0xe8, 0xfd,
  0x03, 0x07, 0x06, 0x09, 0x10, 0xf2, 0xdf, 0xc4, 0xf9, 0xff, 0xb4, 0x07,
  0xf6, 0xd5, 0x0b, 0xfa, 0xe9, 0x00, 0x00, 0xf1, 0x0b, 0x44, 0xdb, 0xf5,
  0x10, 0x00, 0x3b, 0xd6, 0x24, 0x01, 0x28, 0xdf, 0x05, 0xde, 0xf0, 0x13,
  0x18, 0x21, 0xf4, 0xe8, 0x0c, 0xe9, 0xf6, 0xf6, 0x03, 0xfd, 0x12, 0x25,
  0xfb, 0x3b, 0xf1, 0x03, 0x2e, 0x26, 0x09, 0x1e, 0x11, 0xca, 0xf9, 0x01,
  0x12, 0x1f, 0x01, 0x03, 0x1e, 0x14, 0xfc, 0xf1, 0xee, 0xc0, 0xc7, 0x03,
  0xf3, 0x6d, 0xdf, 0xfc, 0x1b, 0x18, 0xdc, 0xbb, 0xf8, 0xea, 0xec, 0xe6,
  0x6e, 0x09, 0xf6, 0x49, 0x91, 0x26, 0xf5, 0x05, 0x0d, 0x0e, 0xf9, 0xf3,
  0xb7, 0x5e, 0xee, 0xd4, 0xdb, 0xeb, 0x1a, 0x10, 0xfc, 0xf9, 0x18, 0x4a,
  0xc9, 0xe3, 0x0f, 0x3f, 0x08, 0xf1, 0x2c, 0x02, 0x17, 0xe5, 0x04, 0x51,
  0x0a, 0x81, 0xe1, 0xf2, 0x43, 0x26, 0x01, 0x0b, 0xfb, 0x1a, 0xfb, 0x04,
  0x10, 0x1f, 0x0e, 0x50, 0x16, 0x0e, 0x38, 0xce, 0x08, 0xed, 0x17, 0xcd,
  0x3c, 0xf9, 0xf7, 0x0e, 0x06, 0x7f, 0x0a, 0xf0, 0xec, 0x0c, 0xf1, 0xef,
  0x0b, 0x17, 0x23, 0xeb, 0xfe, 0x08, 0x0a, 0x0a, 0xfc, 0x13, 0xf2, 0x11,
  0x20, 0x2c, 0x0e, 0x1b, 0xf7, 0xfc, 0x01, 0x0d, 0x13, 0x1a, 0x03, 0x01,
  0x1b, 0x25, 0x0a, 0x11, 0x11, 0xee, 0x34, 0x10, 0x2b, 0xe9, 0xf9, 0x0b,
  0x03, 0xf8, 0x04, 0xf0, 0x08, 0x2f, 0x17, 0x0d, 0xfd, 0xed, 0x1d, 0xf7,
  0x19, 0xef, 0xf7, 0xf0, 0xf7, 0x13, 0x11, 0xf6, 0x77, 0xff, 0x29, 0x0f,
  0x3c, 0x13, 0x0a, 0x10, 0x02, 0x09, 0x02, 0x0c, 0x46, 0x25, 0x23, 0x00,
  0x22, 0x1e, 0x04, 0x01, 0x03, 0x04, 0x39, 0x27, 0x03, 0x4b, 0xff, 0x0c,
  0x03, 0xf1, 0x06, 0x18, 0xf3, 0x0c, 0xff, 0x22, 0xef, 0xf9, 0x04, 0x04,
  0xf3, 0x12, 0x20, 0x1a, 0x08, 0x04, 0x12, 0x10, 0x22, 0xfd, 0xfd, 0x51,
  0xf6, 0x13, 0x0c, 0xf3, 0xf7, 0x1a, 0x0b, 0x0a, 0x0e, 0x11, 0x0a, 0x1b,
  0xfd, 0xf8, 0x06, 0x1d, 0xf9, 0x1c, 0x06, 0xfa, 0xfd, 0x12, 0xe3, 0x1c,
  0xf9, 0x28, 0x0d, 0xfc, 0x05, 0xfb, 0x19, 0x1c, 0x00, 0x1e, 0x13, 0xb0,
  0x0f, 0x03, 0x04, 0xcd, 0xf0, 0xbd, 0xdc, 0x13, 0x11, 0x11, 0x2a, 0xf8,
  0xe1, 0xbd, 0xbc, 0xed, 0x11, 0xce, 0xfa, 0xe0, 0x18, 0x0d, 0x06, 0x81,
  0x05, 0x29, 0x11, 0x20, 0xea, 0xca, 0xc9, 0x12, 0xb9, 0xf5, 0xc0, 0xef,
  0x0e, 0x0e, 0x0a, 0xe8, 0xf6, 0x05, 0xd8, 0xe0, 0xf8, 0xc1, 0x21, 0x06,
  0x14, 0xf0, 0xd8, 0xea, 0x4c, 0xfa, 0xae, 0x05, 0x0b, 0x1f, 0xbe, 0xe2,
  0xf1, 0x31, 0x46, 0xcc, 0xf8, 0x10, 0x09, 0xc7, 0x0a, 0x05, 0x3f, 0x2a,
  0xe8, 0x04, 0x0b, 0xc8, 0xe8, 0x49, 0x13, 0xb2, 0x30, 0xeb, 0xf2, 0xf1,
  0xcc, 0xce, 0xf9, 0xfb, 0xfc, 0xf7, 0x03, 0x06, 0x0a, 0xfd, 0x02, 0xe7,
  0x2f, 0x1a, 0x02, 0x07, 0x10, 0x0c, 0x2a, 0x04, 0x0a, 0xe2, 0xe4, 0x0f,
  0x0a, 0x0e, 0xeb, 0xf6, 0xf8, 0x07, 0x03, 0xe7, 0x01, 0x16, 0x3c, 0x0f,
  0x08, 0x0c, 0x09, 0xfc, 0xeb, 0x02, 0x10, 0xdd, 0xff, 0xf5, 0x0e, 0x0b,
  0xf6, 0xf5, 0x04, 0xe8, 0xf2, 0x07, 0x07, 0xfd, 0xef, 0x05, 0xe9, 0x07,
  0x09, 0xf5, 0x04, 0xfd, 0xb2, 0xfc, 0xf7, 0x43, 0xfb, 0x11, 0xe0, 0xf7,
  0x0c, 0xc6, 0x0e, 0x06, 0xe3, 0xfe, 0x1b, 0x05, 0x04, 0x01, 0xf4, 0x0a,
  0x81, 0xfb, 0x03, 0xce, 0x20, 0xcc, 0xfc, 0xff, 0xe3, 0xfc, 0x0c, 0x03,
  0xf5, 0xd0, 0x05, 0xe6, 0x14, 0xf4, 0x02, 0xf9, 0x01, 0x09, 0xf4, 0x14,
  0x04, 0xd6, 0x0a, 0xa3, 0x05, 0xf9, 0xe8, 0xff, 0x09, 0x05, 0xfb, 0xec,
  0xda, 0x19, 0xff, 0x10, 0xe6, 0xf4, 0xf8, 0x02, 0x27, 0x04, 0xf5, 0x07,
  0x0e, 0xeb, 0xf1, 0xb8, 0x02, 0x02, 0xe8, 0xf7, 0xf4, 0xf0, 0xf6, 0x0d,
  0x00, 0xef, 0xee, 0xf5, 0xf2, 0xfb, 0x0a, 0x02, 0x13, 0xf5, 0x2d, 0xfd,
  0x1d, 0x11, 0x00, 0xbf, 0xf7, 0xe9, 0xf4, 0x17, 0x2e, 0xec, 0x06, 0x02,
  0x11, 0x34, 0xed, 0xdd, 0xeb, 0xee, 0xef, 0x06, 0xea, 0xed, 0x0c, 0x0d,
  0xf4, 0xf9, 0x07, 0x12, 0xf5, 0xdc, 0x54, 0x13, 0xd3, 0x09, 0x0a, 0x18,
  0x6d, 0xf1, 0xee, 0x81, 0x09, 0x2a, 0xe3, 0x07, 0x15, 0xfb, 0xfc, 0x0e,
  0x2f, 0x16, 0xfc, 0x1a, 0x07, 0x1c, 0xf4, 0xe7, 0x36, 0x13, 0x2a, 0x24,
  0x15, 0xe7, 0x17, 0xff, 0xfb, 0xfb, 0x18, 0x00, 0xd6, 0xe9, 0xca, 0xe7,
  0xf5, 0xe1, 0xff, 0xf2, 0xfc, 0x0e, 0x0c, 0xd7, 0xf1, 0xae, 0x14, 0x06,
  0x11, 0xfc, 0x03, 0xfa, 0xff, 0x31, 0x05, 0xe9, 0x05, 0x09, 0x09, 0x0f,
  0x38, 0x02, 0xe2, 0x29, 0xe9, 0x18, 0xd8, 0x05, 0x0b, 0x17, 0xec, 0x36,
  0xef, 0x08, 0xe3, 0xc6, 0x01, 0x15, 0x1b, 0xee, 0x0d, 0xeb, 0xf4, 0x0c,
  0x09, 0xfe, 0xf8, 0xe3, 0x04, 0xf0, 0xfe, 0x01, 0xef, 0x00, 0x13, 0x08,
  0xfe, 0xf1, 0x03, 0xff, 0x07, 0x06, 0xf2, 0xf0, 0x10, 0xff, 0xcf, 0xf3,
  0x03, 0xfc, 0xec, 0xf9, 0xdf, 0x13, 0xe2, 0xfb, 0xfb, 0xee, 0xe5, 0x0d,
  0xff, 0xe8, 0x12, 0x09, 0x08, 0xf9, 0x05, 0xef, 0x81, 0xfe, 0x0a, 0xaa,
  0xf2, 0x06, 0x13, 0x0c, 0xf0, 0xf2, 0x03, 0xe0, 0xe8, 0xfb, 0xe8, 0x04,
  0xf1, 0x0c, 0xfd, 0xf2, 0xdc, 0x09, 0x03, 0xef, 0xe7, 0x00, 0xf0, 0xf6,
  0xfc, 0xf1, 0x01, 0xf7, 0x05, 0x0c, 0xc5, 0x04, 0xf6, 0x08, 0xfc, 0xfd,
  0xf9, 0xf8, 0xe9, 0xf8, 0x05, 0x0a, 0xf6, 0xf0, 0xfb, 0x05, 0xe9, 0xff,
  0xff, 0x0c, 0xf3, 0xf9, 0xfe, 0xe3, 0x03, 0x01, 0xf3, 0x01, 0x05, 0x0c,
  0xa4, 0xf9, 0x04, 0xf4, 0xf8, 0x0a, 0xfc, 0xf8, 0x10, 0xfe, 0xfb, 0x02,
  0xfb, 0xf6, 0x01, 0xee, 0xf7, 0x05, 0xfc, 0x04, 0x05, 0x1a, 0xc0, 0xc9,
  0xf1, 0xce, 0xf1, 0xe2, 0xf9, 0x10, 0x03, 0x18, 0x04, 0xe7, 0x26, 0x12,
  0xfe, 0xdb, 0xfe, 0xe0, 0x1d, 0xfc, 0xe4, 0x26, 0x02, 0x00, 0xd7, 0xf2,
  0xf1, 0xf1, 0xc5, 0x01, 0xda, 0xde, 0xd2, 0x0b, 0xf3, 0xad, 0x02, 0x04,
  0x1f, 0xeb, 0xfe, 0xfb, 0xdd, 0xf4, 0x0f, 0xd5, 0xe4, 0xf3, 0xfb, 0x13,
  0x0b, 0xf6, 0xf5, 0xd9, 0x26, 0xd7, 0xd2, 0xcf, 0xf0, 0x06, 0x10, 0xfe,
  0x25, 0x12, 0x07, 0xe3, 0x02, 0x2b, 0xf5, 0x07, 0xf9, 0xe3, 0xdb, 0x01,
  0xfe, 0xf5, 0xcb, 0x13, 0x04, 0x02, 0xdb, 0xfe, 0x11, 0xf7, 0xd3, 0xd6,
  0xfd, 0xdc, 0xf0, 0x03, 0x02, 0xfa, 0xe6, 0x09, 0xf1, 0xf6, 0xff, 0xfb,
  0x09, 0xd7, 0x04, 0xe8, 0x0d, 0x10, 0x1c, 0xfd, 0x81, 0x0f, 0x17, 0xf9,
  0x14, 0xff, 0xe4, 0x24, 0x0a, 0xfd, 0x09, 0xf5, 0xfe, 0xfa, 0x0b, 0xd8,
  0xe4, 0x0b, 0x03, 0x01, 0xfc, 0xee, 0x06, 0x0a, 0x01, 0x07, 0xfd, 0xf8,
  0xf2, 0x09, 0x03, 0x0a, 0xff, 0x0f, 0x0b, 0xff, 0x04, 0x0c, 0x02, 0x0c,
  0x0c, 0xf5, 0x11, 0x0e, 0x04, 0x02, 0x03, 0x03, 0xff, 0x02, 0xfe, 0x09,
  0x08, 0x1f, 0x02, 0xff, 0x02, 0xfa, 0xf7, 0x02, 0xfc, 0x0a, 0xfe, 0xfb,
  0x7f, 0xfd, 0x0d, 0x62, 0x02, 0x05, 0x09, 0xf8, 0xff, 0xfa, 0xfe, 0x04,
  0x13, 0x0c, 0x11, 0x0e, 0x08, 0xee, 0xfb, 0x09, 0x18, 0xf9, 0x0b, 0x01,
  0x04, 0xf9, 0xfd, 0x06, 0x01, 0x18, 0xf9, 0x09, 0x1f, 0xf7, 0xf7, 0xf8,
  0x02, 0xfe, 0x03, 0x01, 0x06, 0x06, 0x14, 0x0c, 0x03, 0x2b, 0x07, 0x0c,
  0x03, 0x05, 0x11, 0xff, 0x16, 0x02, 0x08, 0x00, 0x01, 0x10, 0x02, 0x06,
  0x00, 0xfe, 0x0e, 0xfc, 0x14, 0xf5, 0x0e, 0xff, 0x0b, 0x06, 0xed, 0x02,
  0xf1, 0x02, 0x00, 0xfc, 0x05, 0x07, 0xf6, 0xff, 0xff, 0x02, 0x04, 0x0b,
  0xec, 0xf6, 0xf1, 0x1e, 0xf4, 0x24, 0xfa, 0xf5, 0x09, 0x07, 0xfb, 0xe6,
  0x02, 0x13, 0x0b, 0xe3, 0xf8, 0x0c, 0xed, 0x04, 0xf5, 0x10, 0xf2, 0xdc,
  0x04, 0xfa, 0x1e, 0xfd, 0x1e, 0xb9, 0x05, 0x02, 0x0c, 0xdc, 0x06, 0xef,
  0x1c, 0xf9, 0xe2, 0xe6, 0x09, 0xff, 0xfb, 0xf1, 0x7f, 0xd9, 0xdb, 0x4a,
  0x15, 0x08, 0xd7, 0x07, 0xfd, 0xec, 0xfe, 0x0b, 0xfc, 0x0a, 0xe0, 0x05,
  0x15, 0x02, 0x0c, 0x04, 0xda, 0xea, 0xee, 0x1f, 0xe4, 0xe7, 0xf9, 0x04,
  0xf9, 0xfa, 0x06, 0xfa, 0xe8, 0xec, 0x28, 0xed, 0x23, 0x04, 0xfb, 0x04,
  0xef, 0xf0, 0x53, 0xf3, 0xfb, 0xad, 0xea, 0xe3, 0x08, 0x01, 0x06, 0xfa,
  0xed, 0xea, 0x08, 0x07, 0x04, 0x10, 0x09, 0xec, 0x1d, 0x0a, 0x19, 0xf4,
  0x00, 0xe2, 0xfc, 0x06, 0xfd, 0xf4, 0xff, 0xe9, 0xec, 0xec, 0x03, 0x00,
  0xfe, 0x01, 0xdc, 0x22, 0x09, 0xfc, 0xfa, 0xe6, 0x0d, 0x30, 0x09, 0xff,
  0xfc, 0xfd, 0xfb, 0xf9, 0xf9, 0x1b, 0xf5, 0xfd, 0xfc, 0xf8, 0x22, 0x06,
  0xfa, 0x1e, 0x0d, 0x16, 0xfc, 0x0b, 0xe8, 0xe4, 0x09, 0x08, 0x05, 0x03,
  0x05, 0xfd, 0x09, 0x09, 0x02, 0x0d, 0x00, 0xf7, 0x00, 0x10, 0x09, 0xfe,
  0xfb, 0x21, 0xff, 0x07, 0x7f, 0x0c, 0x02, 0x3e, 0x09, 0x13, 0x0b, 0xfb,
  0x0a, 0x0c, 0x0c, 0x02, 0xef, 0x19, 0xf1, 0xf9, 0xf4, 0xf5, 0x1b, 0x0b,
  0xcc, 0xee, 0xfd, 0xf3, 0x0d, 0x07, 0x03, 0xf4, 0x08, 0x1b, 0x04, 0xfc,
  0x14, 0x0d, 0xfb, 0xec, 0x00, 0xf5, 0x05, 0x07, 0xff, 0x02, 0x1b, 0x11,
  0x0d, 0x1f, 0xe9, 0xf9, 0xfc, 0xf4, 0xd2, 0xf7, 0x16, 0x0e, 0x03, 0xf5,
  0x00, 0x19, 0x00, 0x12, 0xfa, 0xf2, 0xf0, 0xfb, 0x04, 0x10, 0x02, 0xf6,
  0x00, 0x0b, 0x10, 0x18, 0x08, 0xfe, 0x06, 0x0b, 0x06, 0xf9, 0xf7, 0x0b,
  0xf8, 0x07, 0x0b, 0xf9, 0x0d, 0xf0, 0xec, 0xdf, 0xf5, 0x29, 0xe3, 0x19,
  0xcf, 0xfd, 0x17, 0x10, 0xee, 0xf6, 0x03, 0x18, 0xe9, 0x18, 0x13, 0x17,
  0x0b, 0xf1, 0x8a, 0xa3, 0xfd, 0x03, 0x22, 0x05, 0x0e, 0xcb, 0xf5, 0xf9,
  0x2d, 0x16, 0xf0, 0xef, 0xea, 0x16, 0x2d, 0xf6, 0xd2, 0x48, 0x10, 0xf5,
  0x5d, 0xff, 0xff, 0x7f, 0xeb, 0x1c, 0xf0, 0xf7, 0xe7, 0x04, 0x0d, 0x02,
  0xdc, 0x35, 0x12, 0x23, 0xe2, 0xf3, 0x38, 0xdb, 0x13, 0xdb, 0xf7, 0xa1,
  0x0d, 0xde, 0x06, 0xe5, 0xde, 0x20, 0x0b, 0xf4, 0xec, 0x0e, 0x25, 0x03,
  0x22, 0xe2, 0xff, 0xfd, 0xdb, 0x02, 0xcc, 0x27, 0x1a, 0x0f, 0xbd, 0xc8,
  0xf1, 0xef, 0xa1, 0xdd, 0xfb, 0x0d, 0xf2, 0x01, 0xe5, 0x26, 0xd4, 0x32,
  0xfd, 0xec, 0xd7, 0xfd, 0x21, 0x25, 0xfe, 0xf5, 0xfb, 0x10, 0xfa, 0xb3,
  0x20, 0x11, 0x20, 0xf5, 0xd8, 0xf5, 0x14, 0x08, 0xec, 0x06, 0xef, 0x08,
  0xf1, 0x3a, 0x08, 0x16, 0xf8, 0xe3, 0x0f, 0xf6, 0x08, 0xc4, 0x09, 0xf8,
  0xf6, 0xff, 0xd0, 0xfb, 0xf4, 0xf1, 0xf5, 0x00, 0xf1, 0xe4, 0x02, 0x1b,
  0x08, 0xfb, 0xf0, 0xcf, 0x14, 0x0b, 0xff, 0xf7, 0x22, 0xac, 0x04, 0xe6,
  0x16, 0xfb, 0xcc, 0x0e, 0xff, 0xf0, 0xef, 0xe3, 0x16, 0xd1, 0xd2, 0x81,
  0x0d, 0xe3, 0xc0, 0xfb, 0xe4, 0x24, 0xf3, 0xe7, 0x4f, 0xf5, 0xbd, 0xce,
  0x0f, 0xf7, 0x08, 0x0d, 0xb3, 0x22, 0xff, 0x04, 0xca, 0x03, 0x1c, 0xf9,
  0x0c, 0xf0, 0xf7, 0xfd, 0xd0, 0xba, 0x0f, 0x1b, 0xef, 0xf2, 0xf4, 0x04,
  0xe2, 0x0f, 0x25, 0xfa, 0xef, 0xa2, 0xfd, 0x3a, 0xfb, 0x08, 0x0c, 0xee,
  0xea, 0xd2, 0xf6, 0xe6, 0xf8, 0xc7, 0xfa, 0xff, 0x0f, 0xf7, 0x19, 0xe0,
  0xe0, 0xad, 0xf5, 0xed, 0xdd, 0x02, 0xe7, 0x54, 0x00, 0xfa, 0x38, 0xe8,
  0xea, 0x0e, 0xed, 0x0f, 0x01, 0xec, 0x0d, 0xd2, 0xef, 0x1b, 0x12, 0x09,
  0x00, 0xec, 0x17, 0xf9, 0x28, 0xe0, 0xfa, 0xea, 0xfe, 0x10, 0xf0, 0xf8,
  0x01, 0xf6, 0x0a, 0x03, 0xe5, 0x18, 0x04, 0x0b, 0x06, 0x02, 0x09, 0xee,
  0xf4, 0xfd, 0xf5, 0xfe, 0x08, 0xea, 0x03, 0x05, 0x00, 0x03, 0x08, 0xf9,
  0x1e, 0xe2, 0x08, 0xfa, 0x81, 0xf9, 0xfe, 0xb2, 0x0b, 0xff, 0xf3, 0x0d,
  0x05, 0x09, 0x08, 0xfe, 0x15, 0xe2, 0xcb, 0xe3, 0x01, 0x03, 0xfd, 0x0a,
  0x01, 0xfc, 0xf9, 0x07, 0xbd, 0xfb, 0x13, 0x04, 0xfc, 0xdd, 0xf8, 0x07,
  0xdd, 0xf4, 0xf1, 0xf7, 0xf3, 0x10, 0xf6, 0xfb, 0x08, 0xf2, 0xec, 0xf5,
  0xf2, 0xcd, 0x05, 0xef, 0x02, 0x07, 0x11, 0x0a, 0xd4, 0xf4, 0x05, 0xee,
  0x18, 0xe9, 0xfd, 0xfa, 0x08, 0xfb, 0x08, 0xf0, 0x09, 0xec, 0x08, 0x05,
  0xea, 0x05, 0xfe, 0x29, 0x07, 0x0c, 0x1f, 0xf7, 0x08, 0x04, 0xf6, 0x02,
  0x0e, 0xf6, 0xf3, 0x03, 0xfd, 0x01, 0x03, 0x0e, 0xfb, 0x0a, 0xf9, 0xec,
  0xfd, 0x00, 0xf4, 0x19, 0x07, 0x06, 0xf7, 0x05, 0xf7, 0x07, 0x01, 0xf9,
  0x08, 0xfb, 0x1a, 0x08, 0x03, 0x07, 0x07, 0xff, 0x04, 0x00, 0x0a, 0x0f,
  0x06, 0x18, 0x05, 0x03, 0xf8, 0x06, 0xec, 0xf8, 0xec, 0x04, 0x03, 0x09,
  0x7f, 0x09, 0x0a, 0x55, 0x00, 0xf8, 0x1c, 0xff, 0x00, 0x09, 0x03, 0x03,
  0x0f, 0xfe, 0x22, 0x12, 0x09, 0xeb, 0xfd, 0x05, 0xca, 0xff, 0x0f, 0x1f,
  0x19, 0x07, 0x08, 0x09, 0xf6, 0x1e, 0x07, 0x07, 0x10, 0x0e, 0x16, 0xfa,
  0x01, 0x07, 0x0e, 0xff, 0x0a, 0x05, 0x13, 0x13, 0x08, 0x23, 0x04, 0xff,
  0x07, 0x03, 0x12, 0x03, 0x1a, 0x01, 0x03, 0xf3, 0xfb, 0x01, 0x09, 0x0c,
  0xff, 0x06, 0x0e, 0xf1, 0x0c, 0xfe, 0x0b, 0x02, 0x00, 0xf8, 0xf1, 0xfa,
  0x02, 0xff, 0xf9, 0x0f, 0xff, 0x00, 0x01, 0x04, 0xf0, 0xfb, 0x10, 0xfb,
  0x07, 0x7f, 0x2f, 0xde, 0xf5, 0xf5, 0x31, 0xf9, 0x19, 0x06, 0x19, 0xcd,
  0xfd, 0xf4, 0xe0, 0x0e, 0x10, 0x0b, 0xea, 0xd6, 0xf1, 0x0f, 0x26, 0x41,
  0xf5, 0x06, 0xe4, 0xf3, 0x03, 0x23, 0x0c, 0xf9, 0xfe, 0x13, 0x18, 0x09,
  0x02, 0xc4, 0x45, 0x07, 0xf3, 0xd7, 0x03, 0x12, 0x05, 0xec, 0x0f, 0x1b,
  0xf7, 0xe3, 0xf8, 0xfe, 0x05, 0x20, 0xfc, 0xdb, 0x67, 0xed, 0x08, 0xcc,
  0x0c, 0x0b, 0x02, 0x15, 0x7a, 0x09, 0x28, 0x12, 0xed, 0x33, 0xe6, 0xff,
  0x17, 0x10, 0xf6, 0x0b, 0xcc, 0x21, 0xc6, 0x02, 0xe3, 0xe9, 0xfb, 0xf2,
  0x0d, 0x10, 0xec, 0x13, 0xfd, 0xee, 0xfc, 0x11, 0x05, 0xf4, 0xe5, 0xe5,
  0xf5, 0x20, 0x06, 0x10, 0x1d, 0x11, 0x0d, 0xde, 0x20, 0x21, 0xe0, 0x07,
  0xfd, 0x0a, 0xfa, 0xfa, 0xf6, 0x09, 0xfa, 0x47, 0x10, 0x0e, 0x29, 0xe9,
  0xf6, 0xfc, 0x02, 0xe1, 0x21, 0xfd, 0x00, 0x20, 0x05, 0x5e, 0x19, 0x05,
  0x0e, 0x0a, 0x14, 0xf4, 0x23, 0x06, 0x15, 0xe5, 0x09, 0x06, 0xec, 0x0c,
  0x09, 0xf5, 0xfc, 0xe9, 0xf6, 0x22, 0xfe, 0x24, 0xfe, 0xed, 0xe7, 0x05,
  0xf9, 0xe8, 0xf4, 0xfb, 0xe1, 0x02, 0x01, 0x23, 0xf2, 0xf2, 0x0c, 0x0c,
  0x0e, 0x0d, 0x0b, 0xf1, 0x4d, 0xf5, 0xf4, 0x0b, 0x0a, 0x04, 0xf2, 0xfa,
  0x0a, 0x17, 0x00, 0xf7, 0x40, 0xf7, 0x0e, 0x08, 0x01, 0x04, 0x0b, 0x0a,
  0x7f, 0xfd, 0x0b, 0x1c, 0xff, 0x1c, 0x16, 0x06, 0x10, 0xf5, 0x0f, 0x00,
  0xdf, 0x1e, 0xdb, 0xe0, 0xea, 0xf0, 0x0e, 0x07, 0x02, 0x03, 0xf3, 0xfd,
  0xf5, 0x26, 0xfc, 0x2c, 0x05, 0xef, 0xfb, 0xf6, 0xfe, 0x0f, 0x03, 0x04,
  0x1a, 0xf8, 0xfb, 0xf3, 0xfe, 0x21, 0xe6, 0xf6, 0xec, 0x12, 0xfb, 0x04,
  0xfd, 0x09, 0xfd, 0x54, 0xf4, 0xf9, 0x29, 0xed, 0x08, 0x19, 0x05, 0x01,
  0x13, 0xec, 0xd1, 0x07, 0xf7, 0xe2, 0xe8, 0xe1, 0xee, 0x19, 0xc5, 0xed,
  0xfa, 0xeb, 0x0a, 0x10, 0x08, 0x08, 0x07, 0xe3, 0xf1, 0xfc, 0xca, 0xe6,
  0xff, 0x06, 0x47, 0xc7, 0x1e, 0x0b, 0xf7, 0xfa, 0x03, 0x16, 0xcf, 0xec,
  0xdd, 0xd8, 0xf3, 0x05, 0xd0, 0xe7, 0xed, 0x03, 0x51, 0x81, 0xf2, 0xf4,
  0x91, 0x06, 0x00, 0xb8, 0x07, 0x40, 0x0c, 0x04, 0xdd, 0xb0, 0x20, 0xdf,
  0x09, 0xdb, 0xe5, 0x21, 0x07, 0xe8, 0xd8, 0x33, 0xee, 0x0d, 0x28, 0xe0,
  0x0d, 0xff, 0x26, 0x10, 0xec, 0xcb, 0xe3, 0xfc, 0x22, 0xd1, 0xb6, 0x28,
  0xee, 0x1d, 0xfa, 0xf1, 0x01, 0x05, 0xf2, 0x0d, 0xf0, 0x43, 0x14, 0xe4,
  0x0e, 0x17, 0x11, 0x14, 0x1f, 0x00, 0xf0, 0xd7, 0xd8, 0x4b, 0x08, 0xf2,
  0xae, 0x02, 0x07, 0x25, 0x9f, 0xe9, 0x3b, 0xf8, 0x2d, 0xff, 0x02, 0xd5,
  0xd0, 0xf1, 0xa4, 0x28, 0x20, 0x2c, 0x04, 0x11, 0xdb, 0xf3, 0x17, 0x1f,
  0xf4, 0xf2, 0x1f, 0xd2, 0x1e, 0x06, 0x27, 0x01, 0x00, 0xf3, 0x21, 0xf6,
  0x01, 0x17, 0x1c, 0x09, 0x07, 0xe7, 0xf7, 0xfc, 0xfe, 0x09, 0xea, 0x53,
  0xf2, 0xee, 0xff, 0x03, 0xee, 0x11, 0xe5, 0xfb, 0xf9, 0xf1, 0xe4, 0x12,
  0xf8, 0xc8, 0x2f, 0x23, 0xf9, 0xdf, 0x0e, 0x14, 0x97, 0x02, 0xee, 0x99,
  0xf2, 0xea, 0xec, 0x20, 0xfe, 0xfc, 0xf0, 0x06, 0x39, 0xf2, 0x1b, 0xd7,
  0xfd, 0x12, 0xf4, 0x03, 0x3a, 0x11, 0x1d, 0x01, 0xfe, 0x16, 0x0a, 0x08,
  0x14, 0xf0, 0xf9, 0xf8, 0xf6, 0x02, 0x81, 0xe1, 0xef, 0xe4, 0x11, 0xf3,
  0xf9, 0x08, 0xee, 0xe6, 0xe7, 0xc5, 0x1c, 0x19, 0x01, 0xe9, 0xe1, 0xf8,
  0x09, 0x2d, 0xff, 0x0e, 0x0c, 0x0d, 0x09, 0x04, 0x01, 0x0a, 0xda, 0x0b,
  0x16, 0xf3, 0xde, 0x05, 0x0b, 0x21, 0x04, 0x38, 0xfd, 0x0a, 0x01, 0xe2,
  0x00, 0xf7, 0x1d, 0x09, 0x00, 0xee, 0xec, 0x08, 0x01, 0x3e, 0xe0, 0xe6,
  0xe7, 0x08, 0x12, 0xf3, 0xf8, 0xf2, 0x02, 0xfe, 0xf8, 0x0e, 0xf6, 0xfd,
  0xfd, 0x07, 0x0e, 0x0f, 0xf3, 0x38, 0xe3, 0x15, 0xf1, 0x07, 0xec, 0x20,
  0xfc, 0x12, 0xfa, 0x0e, 0xfd, 0x1c, 0x1c, 0x03, 0x12, 0xf9, 0x08, 0xf0,
  0x01, 0x16, 0xff, 0x0f, 0x71, 0x03, 0x11, 0x7f, 0xeb, 0x05, 0x20, 0x0e,
  0x06, 0xee, 0x18, 0xed, 0x2f, 0x17, 0xcd, 0xee, 0x02, 0xff, 0x18, 0xda,
  0x2d, 0xee, 0x13, 0xf0, 0xca, 0x23, 0xf7, 0xf8, 0xfe, 0x27, 0x05, 0xff,
  0x2a, 0x32, 0x0f, 0x06, 0x0a, 0x00, 0x12, 0x0f, 0x00, 0xf8, 0xdd, 0x04,
  0xec, 0x0f, 0xfe, 0xfd, 0x01, 0xf9, 0xc3, 0xee, 0x0b, 0xf7, 0xf1, 0x17,
  0xea, 0x01, 0xe9, 0x14, 0x05, 0x09, 0x02, 0xe6, 0x02, 0xfe, 0xed, 0x04,
  0xf0, 0x02, 0x09, 0x02, 0x1d, 0x09, 0xfa, 0x0f, 0xfe, 0xe7, 0x0d, 0xf6,
  0xf4, 0x06, 0xe5, 0x13, 0x07, 0xf1, 0xf8, 0x1c, 0x05, 0x13, 0x23, 0x23,
  0x15, 0xcd, 0xb7, 0xc7, 0xf0, 0xd9, 0xd5, 0xed, 0xd1, 0x2c, 0x1a, 0x13,
  0xff, 0xdb, 0xdb, 0xb9, 0xf3, 0x08, 0xf9, 0x22, 0x03, 0xd7, 0x29, 0xed,
  0x1e, 0xf6, 0x06, 0xcf, 0xfc, 0x12, 0xc0, 0xe8, 0xfc, 0x1b, 0xe9, 0x06,
  0x81, 0x0f, 0xd8, 0x82, 0x0f, 0xe5, 0xcf, 0xfc, 0xec, 0x36, 0xf7, 0xfd,
  0xf6, 0x03, 0xd5, 0x18, 0x07, 0xfa, 0x35, 0xd9, 0x91, 0xf8, 0xe6, 0x15,
  0x02, 0xd9, 0x0b, 0xfb, 0xff, 0xee, 0xfe, 0xfd, 0xa5, 0xe6, 0x57, 0x2d,
  0x1a, 0x0f, 0x20, 0x05, 0xed, 0x1c, 0x0b, 0xda, 0x06, 0x85, 0xfe, 0xd3,
  0xf7, 0xf5, 0x05, 0xfb, 0xf9, 0xd8, 0x0b, 0x23, 0x13, 0xe7, 0x02, 0x18,
  0x21, 0x00, 0x11, 0xea, 0x07, 0xdd, 0xfd, 0xf7, 0xe9, 0xf7, 0xe7, 0xca,
  0x0b, 0xf3, 0xf9, 0xd3, 0xfa, 0xea, 0xd4, 0x03, 0x07, 0x24, 0x12, 0xec,
  0x04, 0x7d, 0x14, 0xbc, 0xf3, 0xed, 0xd0, 0xe4, 0x05, 0x17, 0x09, 0x18,
  0xf0, 0xb8, 0xa9, 0x04, 0xf7, 0x46, 0x05, 0x0c, 0x27, 0x00, 0x9e, 0xca,
  0xdb, 0x04, 0xf6, 0xe0, 0xe0, 0xcb, 0xe1, 0x20, 0x18, 0x2a, 0x19, 0x0e,
  0xf6, 0x02, 0x23, 0xf6, 0xa8, 0x36, 0x12, 0xf6, 0x7f, 0x27, 0x04, 0x69,
  0xc8, 0x2b, 0x06, 0xc7, 0x0e, 0xc7, 0x1f, 0xf3, 0x48, 0x22, 0xff, 0x0b,
  0xf5, 0xeb, 0x3c, 0xf9, 0x51, 0xee, 0x22, 0x1e, 0x09, 0xf0, 0xdb, 0xeb,
  0xef, 0x34, 0xfb, 0xcf, 0xc9, 0x46, 0xf9, 0xd3, 0xe7, 0xc9, 0xf0, 0x17,
  0xcc, 0xfb, 0xce, 0x55, 0xe6, 0xef, 0xc0, 0x33, 0xd9, 0xb8, 0x8c, 0xc4,
  0xf7, 0x1e, 0xfe, 0x07, 0xf1, 0xab, 0xde, 0x2d, 0xea, 0x12, 0xfb, 0xe6,
  0xae, 0xb8, 0xd4, 0xe7, 0x01, 0x12, 0x0e, 0x3e, 0xfd, 0x15, 0xe5, 0x04,
  0xbe, 0xa5, 0xe8, 0xf4, 0x0a, 0x0f, 0x9d, 0xfe, 0x0d, 0xc2, 0x01, 0xee,
  0x18, 0x28, 0xcc, 0x10, 0xeb, 0x03, 0xf4, 0xf1, 0x02, 0x21, 0x54, 0x00,
  0x00, 0xe5, 0xec, 0xc3, 0xc8, 0x06, 0x14, 0xfc, 0xef, 0xf3, 0x07, 0x07,
  0xdf, 0xcc, 0xf7, 0xf4, 0xf9, 0xff, 0xe1, 0x09, 0xe3, 0x30, 0xfc, 0xfe,
  0xf8, 0x11, 0x02, 0x00, 0x81, 0x15, 0xf3, 0xe3, 0xf0, 0xf6, 0xe6, 0xd2,
  0xfd, 0xd6, 0xf9, 0xf0, 0x07, 0x02, 0x05, 0x0e, 0xfe, 0xf5, 0x0c, 0xec,
  0xab, 0x0f, 0x0b, 0xa0, 0x1f, 0xca, 0xf4, 0xf7, 0xd6, 0x14, 0x10, 0x09,
  0xf5, 0xc0, 0x1c, 0xe3, 0x16, 0xe7, 0x31, 0x01, 0x05, 0xfc, 0x17, 0xe5,
  0x00, 0xfc, 0xfc, 0xe3, 0xfd, 0x01, 0xfa, 0xfe, 0x06, 0xf7, 0xfc, 0xea,
  0xda, 0x1f, 0xee, 0x15, 0xdf, 0xf7, 0xed, 0x11, 0xec, 0x16, 0xe9, 0x07,
  0x11, 0x0b, 0xf0, 0xbf, 0xf8, 0x06, 0xcf, 0x0b, 0x0b, 0xdf, 0xef, 0xfc,
  0x12, 0xdf, 0xe5, 0x11, 0xf6, 0x7f, 0x18, 0xff, 0x07, 0xf3, 0x23, 0xf4,
  0xfa, 0x06, 0xf9, 0xf7, 0x00, 0x1f, 0xf3, 0xff, 0x0d, 0x07, 0xef, 0x05,
  0xe4, 0x24, 0x00, 0x1b, 0x07, 0xfc, 0xfd, 0x03, 0x0d, 0x03, 0x00, 0x05,
  0x1f, 0xfc, 0x0d, 0xf8, 0x02, 0xdc, 0x3f, 0x07, 0xfc, 0xd4, 0xfd, 0x0b,
  0xc2, 0xed, 0x08, 0x8c, 0xff, 0x0c, 0x0d, 0x0b, 0x09, 0x25, 0xfe, 0x0c,
  0x28, 0xe7, 0x2a, 0xed, 0xf4, 0x0d, 0xed, 0x12, 0x2c, 0x08, 0x03, 0x10,
  0x0e, 0x20, 0x14, 0x03, 0xfd, 0xc6, 0x0a, 0x0b, 0xf7, 0x1a, 0xf3, 0x06,
  0xe6, 0x15, 0xea, 0xf4, 0x11, 0x08, 0xd9, 0xfe, 0xf7, 0xea, 0x06, 0x0e,
  0xff, 0xfa, 0x18, 0xf4, 0xf0, 0x05, 0xf9, 0x02, 0x33, 0x00, 0x0a, 0xfb,
  0x03, 0x0e, 0xf2, 0x12, 0xf2, 0xf2, 0x07, 0xfb, 0x06, 0x02, 0x23, 0x61,
  0xf1, 0x0f, 0x06, 0x08, 0xfc, 0x12, 0x02, 0x12, 0x14, 0xf6, 0x0f, 0x10,
  0xf8, 0x21, 0x01, 0x12, 0x04, 0x01, 0x0c, 0xef, 0xfd, 0x11, 0x03, 0xfa,
  0x06, 0x03, 0x10, 0x02, 0x09, 0x06, 0x05, 0x02, 0xfa, 0x0f, 0xfd, 0x06,
  0x06, 0x02, 0x0c, 0x07, 0x13, 0xf6, 0x0b, 0x0b, 0xff, 0x06, 0xfc, 0x06,
  0x0b, 0xfa, 0x02, 0x02, 0xfb, 0xee, 0xff, 0xf9, 0x7f, 0xff, 0xff, 0x36,
  0x01, 0x04, 0x0c, 0xf1, 0x0b, 0x00, 0xf9, 0x02, 0xfe, 0xfd, 0x05, 0x0a,
  0x05, 0xf5, 0xfa, 0x0d, 0xfc, 0xfb, 0x13, 0x1a, 0x0e, 0xfb, 0x05, 0x09,
  0xfd, 0x1d, 0xfe, 0x02, 0x01, 0xf1, 0x0c, 0xe0, 0xf7, 0x09, 0x08, 0xf6,
  0x04, 0xfb, 0x19, 0x12, 0x00, 0x0b, 0x0b, 0x08, 0xff, 0x05, 0x09, 0x00,
  0x14, 0x02, 0x03, 0xff, 0xf0, 0x1b, 0x01, 0x05, 0x00, 0xff, 0xfc, 0xf8,
  0x00, 0x15, 0xfc, 0x04, 0x0a, 0x06, 0x08, 0x13, 0xf0, 0x01, 0x08, 0xf5,
  0x0b, 0x02, 0x09, 0x0b, 0xfe, 0x01, 0xfc, 0x0b, 0xf7, 0xdc, 0x1a, 0xfe,
  0x0e, 0x15, 0xe5, 0xf0, 0x03, 0xef, 0xe9, 0xf0, 0xeb, 0xe3, 0xd6, 0xd8,
  0xcd, 0xf2, 0x0d, 0x0d, 0x0e, 0xeb, 0xe4, 0xc4, 0x03, 0x07, 0x01, 0x05,
  0xfa, 0xf3, 0x17, 0x0d, 0x0c, 0x02, 0x0a, 0xde, 0x1e, 0x0f, 0xe1, 0xe7,
  0xcc, 0x29, 0xf4, 0x0e, 0xa0, 0x09, 0xf5, 0xce, 0xfd, 0x03, 0xd7, 0x04,
  0xdb, 0xf8, 0xe8, 0xf1, 0xf2, 0x24, 0xf8, 0xfc, 0xfd, 0x0a, 0xfe, 0x00,
  0x81, 0xf7, 0xc5, 0x0e, 0xc6, 0xd7, 0x08, 0xe1, 0x08, 0x0b, 0x08, 0xff,
  0xfe, 0x20, 0x0a, 0xd2, 0xf8, 0x0d, 0xfd, 0x09, 0xdb, 0xf0, 0x26, 0x05,
  0x0c, 0xb6, 0xea, 0xf3, 0x00, 0xf4, 0xe8, 0xe7, 0xe9, 0xcd, 0xe9, 0x18,
  0x12, 0xff, 0xf6, 0x30, 0x01, 0xe1, 0x19, 0xf5, 0x1c, 0xcf, 0x02, 0xf8,
  0xec, 0xfa, 0x0e, 0xfe, 0xfc, 0xfb, 0x16, 0x0f, 0xf1, 0xd9, 0xdf, 0x1a,
  0x0a, 0x0b, 0xe5, 0xb6, 0xf4, 0x09, 0xf8, 0x06, 0xfa, 0xfc, 0xfc, 0x1f,
  0x1c, 0x01, 0xe6, 0xd0, 0xfe, 0xff, 0x0a, 0xf1, 0xe8, 0xf7, 0xf3, 0xfd,
  0xf1, 0x04, 0x02, 0xd5, 0x02, 0x03, 0x15, 0xf2, 0x0f, 0xf0, 0x0d, 0xfb,
  0x03, 0x02, 0xfb, 0xfd, 0x13, 0xfa, 0x08, 0xf0, 0xf7, 0xeb, 0xf2, 0xfa,
  0x81, 0x00, 0xe0, 0x88, 0xf9, 0xfc, 0xf3, 0x1b, 0xf1, 0x0d, 0x18, 0x0a,
  0xe2, 0x12, 0xbc, 0x0d, 0x08, 0x1e, 0x06, 0x03, 0xbe, 0xfb, 0xc6, 0x22,
  0x01, 0xf4, 0x04, 0xf9, 0x0c, 0xe4, 0xf1, 0x0d, 0x0c, 0xf9, 0x0e, 0x27,
  0xff, 0x0b, 0xe5, 0xf3, 0x01, 0x13, 0x14, 0xbf, 0xf4, 0xdf, 0xf3, 0xce,
  0xf9, 0x0f, 0x0c, 0x08, 0xdc, 0xda, 0xfe, 0x01, 0x07, 0x27, 0x0a, 0xf6,
  0x07, 0xea, 0x06, 0x06, 0x05, 0xfb, 0xf9, 0x01, 0x00, 0x02, 0xf8, 0xcf,
  0x00, 0xf7, 0xf5, 0x11, 0xf5, 0xf9, 0xf1, 0xff, 0xf1, 0x07, 0x09, 0x08,
  0xf2, 0x9e, 0x09, 0xfe, 0x0c, 0xe9, 0x19, 0x06, 0xf4, 0xe1, 0xeb, 0x12,
  0xfd, 0x01, 0xd1, 0xd8, 0xbe, 0xf1, 0xf3, 0xd1, 0xf0, 0xeb, 0x26, 0x03,
  0xfd, 0xec, 0xf0, 0xdb, 0x0c, 0xe9, 0xf4, 0xe9, 0xea, 0xdb, 0xdd, 0xeb,
  0x14, 0x1f, 0xb6, 0xed, 0x20, 0xd9, 0xe3, 0xf7, 0x81, 0xe9, 0xe2, 0xea,
  0xf1, 0x03, 0xe6, 0x21, 0xeb, 0x25, 0x0d, 0x0d, 0xfe, 0xe9, 0xbe, 0x13,
  0x0c, 0x04, 0xec, 0x18, 0xac, 0x02, 0xf8, 0x46, 0x2f, 0x05, 0xf8, 0xef,
  0xf7, 0xa2, 0xe3, 0x0b, 0x0c, 0xd6, 0x25, 0xed, 0x00, 0x25, 0xc8, 0xef,
  0xff, 0x01, 0xf0, 0x44, 0x0b, 0xfc, 0xf5, 0xf8, 0xf8, 0x11, 0x3a, 0x0e,
  0x0e, 0xd3, 0x0a, 0x06, 0xe7, 0x3d, 0x19, 0xed, 0x00, 0xdd, 0x21, 0xe3,
  0x2e, 0x01, 0x2f, 0x02, 0x04, 0xf0, 0xf0, 0x0e, 0xda, 0xe9, 0xf6, 0x2d,
  0x10, 0x02, 0xd0, 0x01, 0xdd, 0xfa, 0x1b, 0x06, 0xfb, 0xea, 0x15, 0xff,
  0x0f, 0x1c, 0xf8, 0xf9, 0x01, 0x0e, 0x09, 0x04, 0xfb, 0x0a, 0x0d, 0xed,
  0xfc, 0x00, 0x07, 0x02, 0xf6, 0x20, 0xfd, 0xf3, 0x07, 0x00, 0x0d, 0xf6,
  0x0a, 0xf6, 0x09, 0x04, 0xf9, 0x10, 0xff, 0x0e, 0x05, 0xfe, 0x11, 0x0a,
  0xf5, 0xf7, 0xfb, 0xfe, 0x7f, 0x05, 0x03, 0x4f, 0x07, 0x10, 0x15, 0xef,
  0xf7, 0x1f, 0x0f, 0x00, 0x13, 0x03, 0x1c, 0x0c, 0xf7, 0x04, 0x03, 0xfd,
  0x0b, 0xff, 0x12, 0xf7, 0x1f, 0xee, 0x0f, 0xfa, 0x09, 0x17, 0xfc, 0xff,
  0x01, 0xee, 0x00, 0xf4, 0x0d, 0x03, 0xf8, 0xfd, 0x00, 0x06, 0x12, 0x15,
  0xfa, 0x29, 0x05, 0x06, 0x01, 0x02, 0xf6, 0x02, 0x0a, 0x10, 0xfa, 0x0b,
  0x00, 0x3e, 0xfb, 0xfa, 0xf6, 0xfc, 0x0b, 0x05, 0x06, 0x06, 0xf8, 0xfb,
  0x00, 0x12, 0x00, 0x04, 0xfc, 0xf4, 0x09, 0xff, 0x05, 0xfb, 0x07, 0xfe,
  0xfe, 0xfb, 0xfc, 0x04, 0xfb, 0x81, 0xe1, 0xed, 0x0d, 0x3b, 0xae, 0x13,
  0xac, 0x14, 0xe9, 0x1e, 0xf6, 0xf5, 0x55, 0xf5, 0x1e, 0x02, 0x05, 0xed,
  0xee, 0x29, 0xf2, 0xb8, 0xf2, 0x19, 0x0a, 0x1a, 0xd5, 0xfc, 0x11, 0x20,
  0xc7, 0xf9, 0x16, 0x14, 0xca, 0xf3, 0x16, 0x2e, 0xb0, 0x07, 0x09, 0x13,
  0x50, 0x0e, 0x0b, 0xb4, 0x01, 0x02, 0x1d, 0xd6, 0x1c, 0xd0, 0x24, 0x0e,
  0x1c, 0x1f, 0xe6, 0xe9, 0xe5, 0x05, 0x0a, 0xe9, 0x8d, 0xe2, 0xd4, 0xbc,
  0x29, 0xb3, 0xde, 0xf0, 0xfe, 0x09, 0x0f, 0xea, 0x24, 0x0a, 0xe8, 0xc8,
  0x34, 0xbb, 0x1c, 0xea, 0x0d, 0xff, 0xe6, 0xcf, 0x11, 0xf4, 0xea, 0x9b,
  0xfa, 0xc9, 0xd5, 0xfd, 0xf3, 0xf5, 0xeb, 0x0a, 0xf4, 0x06, 0xcd, 0x09,
  0xb5, 0xea, 0xe4, 0xe9, 0xf2, 0xf8, 0xb6, 0xe8, 0xfb, 0x1c, 0xc4, 0xbb,
  0x2c, 0xf9, 0xc9, 0xf4, 0xd2, 0xd3, 0x16, 0xe1, 0xed, 0x18, 0xb5, 0x0d,
  0xef, 0x2f, 0x22, 0xf7, 0x08, 0xfc, 0x37, 0xf5, 0xe8, 0x07, 0x2d, 0xd4,
  0x0f, 0xea, 0xfa, 0x18, 0x14, 0xf6, 0xd5, 0x0d, 0xf0, 0xfc, 0xf2, 0x03,
  0xed, 0xf7, 0xff, 0xf5, 0xd0, 0x0e, 0xea, 0xf9, 0xf6, 0x0c, 0x04, 0x23,
  0xfe, 0xe4, 0x06, 0x16, 0x13, 0xed, 0x17, 0xf9, 0xb2, 0xea, 0xf4, 0x35,
  0xf2, 0x12, 0x05, 0xdf, 0x0a, 0x34, 0xef, 0xf2, 0x5a, 0xf8, 0x1a, 0xfb,
  0x0b, 0x0c, 0xe8, 0xfa, 0x7f, 0x15, 0x34, 0x36, 0x3d, 0x3c, 0xec, 0x0d,
  0x1a, 0xeb, 0xf1, 0xfa, 0xe3, 0x28, 0x06, 0xc7, 0x04, 0xda, 0x16, 0xed,
  0x01, 0xf5, 0xf5, 0x0c, 0xde, 0xfd, 0x02, 0x21, 0x05, 0x0c, 0x17, 0xfe,
  0xf3, 0x32, 0x0f, 0x1d, 0xfc, 0x45, 0x03, 0xdb, 0x29, 0x25, 0xc6, 0xff,
  0x25, 0xfc, 0xf7, 0xf6, 0x06, 0x0b, 0x26, 0x51, 0xfd, 0x05, 0x08, 0xf8,
  0xf4, 0xd9, 0x22, 0xea, 0x26, 0xd6, 0xc8, 0x17, 0x04, 0x19, 0x08, 0xed,
  0xef, 0xf2, 0x28, 0x08, 0x50, 0xf7, 0x0b, 0xe8, 0xf5, 0xe1, 0xe6, 0xe8,
  0xe0, 0x2d, 0x00, 0x10, 0xf0, 0x1d, 0x00, 0x1a, 0xf7, 0x0b, 0x0d, 0x07,
  0x06, 0xec, 0x1c, 0xff, 0x4d, 0x1d, 0x12, 0xe6, 0x16, 0x03, 0xe6, 0xf3,
  0x1b, 0x22, 0xf1, 0xf9, 0x7f, 0xf3, 0x00, 0x72, 0x16, 0xdb, 0xca, 0x21,
  0xfa, 0x3d, 0x17, 0xe1, 0x17, 0x1f, 0xdb, 0xf4, 0xfb, 0xf4, 0x21, 0xe8,
  0x1e, 0xfc, 0xe5, 0x2c, 0xf6, 0x04, 0xfa, 0xe2, 0x23, 0x2a, 0xf5, 0x0e,
  0x41, 0x0d, 0x3c, 0x2d, 0xe3, 0xf0, 0xed, 0xfb, 0xdc, 0x17, 0xec, 0x12,
  0x0e, 0xfa, 0xca, 0x45, 0xea, 0xd2, 0x0a, 0xe5, 0xe7, 0xc5, 0xfa, 0x12,
  0xdd, 0xc6, 0xc8, 0x0f, 0x2e, 0xf8, 0x0a, 0xf4, 0x05, 0xd6, 0xc2, 0xf1,
  0xfa, 0x10, 0xde, 0x42, 0x04, 0xf7, 0x01, 0x11, 0xd2, 0xd6, 0xdb, 0xec,
  0xf4, 0x16, 0xdd, 0xb2, 0x11, 0xa9, 0xe5, 0xc0, 0xf2, 0xe8, 0xfb, 0x13,
  0xdc, 0xdc, 0x15, 0x19, 0xff, 0xe9, 0x31, 0x0b, 0x0e, 0x04, 0x09, 0xfe,
  0x30, 0x01, 0xf2, 0xd0, 0x02, 0x0d, 0xcd, 0xf2, 0xf9, 0xf5, 0xee, 0xf6,
  0xfe, 0xfd, 0xea, 0xfe, 0xd5, 0x01, 0x0f, 0xf3, 0xec, 0xf5, 0x08, 0xf2,
  0x81, 0x0c, 0xfa, 0x8f, 0xdd, 0xfd, 0x13, 0xef, 0x0d, 0xef, 0xe7, 0xd5,
  0xc7, 0xf3, 0xf7, 0x23, 0xff, 0x05, 0x11, 0xe2, 0xa0, 0x06, 0xf2, 0xaf,
  0xe8, 0xed, 0xf2, 0x06, 0xda, 0x01, 0x01, 0xfc, 0x1a, 0x00, 0xcf, 0x25,
  0xfb, 0x0f, 0x06, 0x0e, 0x0d, 0x17, 0xc2, 0xcb, 0x08, 0xfb, 0xfe, 0xc3,
  0x01, 0x06, 0xdc, 0x0a, 0x18, 0x0e, 0xfd, 0xe9, 0xe9, 0xfd, 0xf8, 0xe8,
  0xdd, 0xf1, 0x04, 0x11, 0x8f, 0xfb, 0x0d, 0x0a, 0x07, 0xfa, 0xf4, 0xbf,
  0x02, 0xfe, 0xdf, 0x13, 0x0d, 0x02, 0xfc, 0xd9, 0xfd, 0x0f, 0xf7, 0x00,
  0x07, 0xfd, 0xe2, 0x01, 0xf1, 0xf7, 0xe8, 0xf6, 0xed, 0xf9, 0x1d, 0x36,
  0x05, 0xeb, 0xf5, 0xfe, 0x01, 0x03, 0x03, 0xe1, 0x18, 0x0f, 0x20, 0xd1,
  0x0e, 0xfa, 0xee, 0xf5, 0x14, 0xe1, 0x17, 0x0f, 0xd2, 0x1c, 0xed, 0xe7,
  0xed, 0x14, 0xe0, 0x04, 0x13, 0xe8, 0x08, 0x00, 0x7f, 0x11, 0x02, 0x62,
  0xf2, 0xf1, 0x46, 0x0f, 0x0d, 0xea, 0x11, 0xff, 0xe9, 0x04, 0x47, 0x1f,
  0x0f, 0xea, 0xf2, 0x14, 0xcd, 0xe4, 0x16, 0x2a, 0x2f, 0x2a, 0xf2, 0x05,
  0xed, 0x23, 0xff, 0x07, 0xff, 0x08, 0xd7, 0x1d, 0x0d, 0x18, 0xff, 0x0e,
  0x0a, 0x08, 0xff, 0x3d, 0x26, 0x2e, 0x0b, 0x23, 0x02, 0x11, 0x23, 0x08,
  0x26, 0xeb, 0x09, 0xe6, 0xd2, 0xcf, 0xfd, 0xfb, 0x12, 0xf6, 0xfa, 0x08,
  0x2a, 0x04, 0x1c, 0x0a, 0x1e, 0xef, 0xf1, 0xf1, 0xf2, 0xfe, 0xe5, 0x20,
  0x14, 0x04, 0xed, 0xf9, 0xec, 0x04, 0xff, 0x05, 0x0d, 0x0e, 0xfe, 0xc3,
  0x17, 0xe4, 0x1f, 0xc4, 0x21, 0xe1, 0xca, 0xf5, 0xf1, 0xb8, 0xd1, 0x01,
  0x07, 0x1f, 0x10, 0xee, 0x13, 0xed, 0xae, 0x31, 0xe9, 0x06, 0xf1, 0xec,
  0xc5, 0xc7, 0x17, 0x0d, 0x9d, 0x34, 0xe8, 0xeb, 0xe7, 0xdf, 0x16, 0x27,
  0x15, 0x0a, 0x01, 0xfd, 0x01, 0xea, 0x00, 0x02, 0x10, 0xeb, 0xfd, 0xe0,
  0xe0, 0xe7, 0xe2, 0x19, 0x1f, 0x0e, 0xd8, 0xcb, 0x05, 0xfe, 0x00, 0xec,
  0xf0, 0x09, 0xb6, 0x4b, 0xf5, 0x21, 0x06, 0xdf, 0x20, 0x29, 0x12, 0xd1,
  0xa9, 0x14, 0x28, 0xba, 0xda, 0x04, 0x03, 0x06, 0xcd, 0xf7, 0x17, 0x37,
  0xed, 0x12, 0x01, 0x42, 0xd4, 0xc0, 0xf1, 0xcf, 0x03, 0x0c, 0xf5, 0xf3,
  0xf0, 0x98, 0xc9, 0x26, 0x01, 0x1a, 0xe2, 0xf6, 0x15, 0xb4, 0xc8, 0xe6,
  0xa5, 0x14, 0x3d, 0xea, 0xfb, 0xff, 0x6c, 0xf4, 0xd3, 0xe7, 0xef, 0xf8,
  0x0c, 0xee, 0xed, 0x81, 0xf8, 0x39, 0x0c, 0x0a, 0x02, 0xfd, 0x05, 0x11,
  0x2e, 0xf2, 0xdb, 0xe0, 0x00, 0xf5, 0x14, 0xfe, 0xe8, 0xe3, 0xfe, 0x19,
  0x1c, 0x25, 0x09, 0x28, 0x07, 0x13, 0xfc, 0xea, 0x20, 0xe0, 0x0a, 0x05,
  0x0f, 0xe0, 0xfc, 0xe6, 0x20, 0x06, 0xe6, 0xef, 0xff, 0xf3, 0xf7, 0x14,
  0xf3, 0x09, 0x00, 0x81, 0x02, 0xfd, 0xe5, 0x10, 0xe4, 0x1e, 0xf0, 0x0f,
  0xbd, 0xfd, 0xde, 0x0a, 0x08, 0x08, 0x0f, 0x0b, 0x2b, 0x00, 0xf0, 0xf6,
  0x0e, 0xdb, 0x14, 0xf5, 0x02, 0xe6, 0xf1, 0x0a, 0xd6, 0xe7, 0xfa, 0x25,
  0x16, 0x0a, 0xec, 0xfb, 0xfe, 0x04, 0x0a, 0xc6, 0x10, 0xe4, 0x01, 0x0c,
  0xfd, 0x00, 0xf3, 0x13, 0xff, 0xd6, 0xff, 0xff, 0xfa, 0xe4, 0x05, 0xf7,
  0x00, 0xfb, 0x0f, 0xeb, 0xde, 0xf0, 0x1c, 0xfa, 0xeb, 0xf0, 0xf5, 0xf3,
  0xf6, 0x00, 0xe8, 0x13, 0x03, 0x06, 0xe4, 0xf7, 0x21, 0x03, 0x0e, 0x00,
  0x02, 0x17, 0x1b, 0x20, 0x15, 0xfe, 0x1a, 0x59, 0x45, 0xdd, 0xf8, 0xe8,
  0xfe, 0xfa, 0x81, 0xdc, 0xf1, 0xef, 0x13, 0xfc, 0x09, 0x0b, 0x0a, 0xf9,
  0xf8, 0xfc, 0x04, 0xec, 0x46, 0x0f, 0xfd, 0x0e, 0x23, 0x04, 0xf0, 0xf3,
  0x2f, 0x42, 0xdb, 0x0f, 0x43, 0xef, 0xee, 0x0f, 0xdf, 0x15, 0xf4, 0x2d,
  0xf4, 0xd4, 0x10, 0x3e, 0xd2, 0x3b, 0xfa, 0x0a, 0x11, 0xf6, 0xbc, 0xd7,
  0xef, 0x1a, 0x33, 0x01, 0xf2, 0xf5, 0xe3, 0x48, 0x0b, 0x29, 0xf8, 0x07,
  0x00, 0x19, 0x06, 0x00, 0x4e, 0xf1, 0x66, 0x2e, 0x04, 0xf4, 0xfc, 0x1d,
  0xfa, 0x1d, 0xf1, 0xe0, 0x0d, 0xd1, 0x02, 0xe7, 0xed, 0x0c, 0x1f, 0x09,
  0x11, 0xfa, 0x05, 0x13, 0x37, 0xe0, 0x0c, 0x0d, 0x25, 0x0b, 0x2c, 0xef,
  0x14, 0xaf, 0xf7, 0xfc, 0x02, 0x1b, 0x17, 0xec, 0xfc, 0xf5, 0x18, 0xfb,
  0x25, 0xff, 0xfe, 0x05, 0x2d, 0x23, 0x16, 0xfb, 0x04, 0x0f, 0xe9, 0x08,
  0x15, 0xea, 0x0d, 0xf6, 0xf4, 0x23, 0xe9, 0xf8, 0xf8, 0xfc, 0x0d, 0x1c,
  0x01, 0x18, 0x0c, 0x09, 0x02, 0x12, 0xa8, 0x0c, 0x04, 0x0b, 0xf4, 0xe6,
  0xef, 0x0d, 0x00, 0x0f, 0x03, 0x1c, 0xe3, 0xfe, 0xf4, 0xec, 0xe4, 0x01,
  0xcf, 0xfc, 0x07, 0xfb, 0x7f, 0xef, 0x18, 0x23, 0x04, 0xe7, 0x23, 0x08,
  0x0a, 0x04, 0xff, 0xe8, 0x02, 0x13, 0x04, 0x09, 0xf3, 0x00, 0x14, 0xee,
  0xe5, 0x13, 0x02, 0xe9, 0xff, 0x17, 0x04, 0xe7, 0xf7, 0x28, 0x10, 0xe0,
  0x02, 0x12, 0xe9, 0xfb, 0xe8, 0x07, 0xfa, 0xf8, 0xe9, 0x06, 0xd7, 0x35,
  0xf2, 0xfa, 0xe3, 0xf4, 0xf9, 0xfc, 0xca, 0xef, 0x16, 0x10, 0xf4, 0x16,
  0x0f, 0xdb, 0xfc, 0x07, 0xef, 0xf4, 0x08, 0xd5, 0xde, 0xde, 0xf2, 0xf0,
  0xe5, 0xfe, 0x12, 0x07, 0xf8, 0xf4, 0xfe, 0x1a, 0xea, 0x05, 0x0e, 0x03,
  0xf2, 0xfd, 0x15, 0xdc, 0x0c, 0xd0, 0x17, 0xd8, 0x0e, 0x33, 0x10, 0x1f,
  0xc8, 0xf7, 0x17, 0x22, 0xf6, 0xb4, 0xf7, 0xf6, 0x05, 0x48, 0x12, 0x18,
  0x16, 0xef, 0xef, 0xfd, 0xef, 0x0f, 0xe0, 0xff, 0xd8, 0xea, 0x16, 0x01,
  0x36, 0x25, 0xfd, 0x19, 0x0f, 0x0d, 0x1e, 0x24, 0xb1, 0x43, 0x07, 0xf5,
  0x7f, 0xde, 0x26, 0x15, 0xf0, 0x31, 0x2e, 0x15, 0xec, 0xd2, 0x12, 0x03,
  0x0b, 0x11, 0xd3, 0x24, 0x01, 0x33, 0x19, 0xdf, 0xe9, 0xe3, 0xcf, 0xf3,
  0x2e, 0x21, 0xfa, 0x04, 0xed, 0x4e, 0x0e, 0xee, 0x20, 0x0f, 0x0d, 0x09,
  0x37, 0xf0, 0xfd, 0x03, 0xdd, 0x30, 0xed, 0xda, 0x22, 0x44, 0xe4, 0xda,
  0xfb, 0xdb, 0xc5, 0x08, 0x16, 0xff, 0xf9, 0x26, 0x14, 0x1d, 0xc8, 0x0e,
  0x00, 0xef, 0xfa, 0xee, 0x2e, 0x0a, 0xbb, 0xf1, 0xf9, 0x12, 0xe9, 0xd5,
  0x2b, 0xf0, 0xfc, 0xf3, 0xb8, 0xb6, 0x1a, 0xf4, 0xfd, 0xfe, 0xe7, 0xf7,
  0x03, 0x2b, 0xfb, 0xec, 0x04, 0x0c, 0xf7, 0x24, 0x19, 0xb8, 0xd1, 0xf0,
  0xec, 0x0d, 0xab, 0xd8, 0xe4, 0xe7, 0x1d, 0xfc, 0xee, 0x2e, 0xee, 0x11,
  0xf9, 0x08, 0x11, 0x00, 0x03, 0x07, 0x0b, 0x13, 0x47, 0xe8, 0x06, 0xe8,
  0x07, 0x3e, 0xe9, 0xfe, 0xf0, 0x51, 0xe4, 0x15, 0xab, 0xe4, 0xcf, 0x81,
  0xf9, 0xf8, 0xe0, 0x13, 0xe6, 0x3d, 0x09, 0x06, 0xf8, 0xed, 0x99, 0xea,
  0x05, 0xf9, 0xfd, 0xe2, 0xda, 0xf7, 0xc1, 0x0e, 0xb8, 0xd7, 0x12, 0xf0,
  0x1e, 0x0e, 0x25, 0x06, 0xa0, 0x00, 0x1b, 0x24, 0x00, 0xfb, 0xfb, 0x0e,
  0xe7, 0xfe, 0x28, 0xc2, 0xdd, 0xbb, 0xe0, 0xc9, 0xff, 0x04, 0xf2, 0xf0,
  0xd5, 0xe2, 0x02, 0x19, 0xfb, 0xd9, 0x0b, 0x18, 0xff, 0x0d, 0xfe, 0xce,
  0xf4, 0xe3, 0xfe, 0xf8, 0xee, 0xef, 0xee, 0xd7, 0x14, 0x01, 0x17, 0xf4,
  0xea, 0xf0, 0xda, 0x0e, 0x0c, 0xfa, 0x0f, 0xf0, 0x01, 0x0d, 0xd2, 0xfd,
  0x11, 0x19, 0x07, 0xf6, 0x18, 0x17, 0xfd, 0x1b, 0xf1, 0xd2, 0x2a, 0x1a,
  0x1a, 0x01, 0x1a, 0x0b, 0x17, 0x1a, 0xb8, 0x32, 0xd7, 0xf4, 0x08, 0x0e,
  0xe0, 0xe3, 0xfc, 0x12, 0x12, 0x05, 0x2a, 0x0e, 0x0e, 0x02, 0xfd, 0xfd,
  0xa5, 0x04, 0xf9, 0xf7, 0x60, 0x13, 0xfd, 0x60, 0xf2, 0xea, 0xfb, 0xe0,
  0xf2, 0xe5, 0xf3, 0xe1, 0xf9, 0x0c, 0xdd, 0xfd, 0xfb, 0xe9, 0x40, 0x99,
  0x60, 0xfe, 0xfb, 0x56, 0xae, 0x01, 0xe6, 0xc8, 0xf7, 0x50, 0x07, 0xd4,
  0xec, 0xfb, 0x1f, 0xd6, 0xfe, 0xc5, 0x0b, 0x06, 0xe2, 0xf1, 0xd8, 0xee,
  0x00, 0xff, 0xb7, 0x42, 0xea, 0xcb, 0x92, 0xdf, 0x12, 0x1c, 0xf1, 0x1b,
  0x0f, 0x81, 0xb3, 0x25, 0xc8, 0x09, 0x00, 0x0b, 0x12, 0xd0, 0xb9, 0xdd,
  0xf5, 0xf4, 0x34, 0x1e, 0x31, 0x15, 0x29, 0x0d, 0xb6, 0xba, 0x0d, 0x12,
  0xfb, 0x1e, 0xc6, 0xde, 0xf5, 0xed, 0x09, 0x10, 0xf7, 0x02, 0x09, 0x16,
  0x0d, 0xfc, 0xf7, 0xea, 0x00, 0xf4, 0xf0, 0xf7, 0xf9, 0xf5, 0x00, 0x06,
  0xf8, 0xfe, 0xf5, 0x13, 0xfd, 0xfe, 0x02, 0xeb, 0xff, 0x06, 0x00, 0xf2,
  0x19, 0xed, 0x0d, 0x00, 0x0b, 0xf8, 0xee, 0xfc, 0x07, 0x05, 0xff, 0xfa,
  0x81, 0xf6, 0xf1, 0xc8, 0x01, 0xfb, 0xee, 0xfa, 0xf0, 0x10, 0x02, 0xfd,
  0x07, 0xe9, 0xd3, 0xe9, 0xff, 0x04, 0xfe, 0xfe, 0xfa, 0x05, 0xfa, 0x06,
  0xf3, 0xed, 0x0c, 0xfa, 0x01, 0xcd, 0xf6, 0xff, 0xeb, 0xf1, 0x0d, 0x15,
  0x02, 0x03, 0x01, 0xfe, 0xf9, 0xfb, 0x06, 0x02, 0xf9, 0xbb, 0xf6, 0x08,
  0x03, 0x03, 0x05, 0xff, 0xdf, 0xf3, 0x00, 0xf9, 0x0f, 0x0b, 0x04, 0xf0,
  0x0e, 0xf6, 0xfc, 0x10, 0x04, 0x05, 0xf7, 0xfb, 0xee, 0xf9, 0x10, 0xf2,
  0x00, 0x03, 0x0b, 0xfa, 0xfe, 0x00, 0x03, 0x0a, 0xfa, 0x04, 0x05, 0x03,
  0xf3, 0x27, 0x0e, 0x19, 0x0a, 0xf5, 0x1c, 0xf9, 0x1d, 0x04, 0xd4, 0xed,
  0x08, 0xfb, 0xf4, 0x07, 0x01, 0xf1, 0x04, 0x09, 0xd0, 0x0d, 0x17, 0x08,
  0x00, 0xfa, 0x00, 0xef, 0x0c, 0x04, 0x0e, 0x0d, 0x0a, 0xcc, 0x10, 0x05,
  0x12, 0xe8, 0xf2, 0x04, 0xfa, 0xd5, 0xfb, 0xf5, 0xbb, 0xf5, 0xff, 0x81,
  0x07, 0x18, 0xeb, 0xf5, 0xf5, 0xf8, 0xf7, 0x08, 0xec, 0xf5, 0xd6, 0xd8,
  0x06, 0xec, 0xdf, 0x0a, 0x3f, 0xff, 0xee, 0x02, 0x05, 0x0b, 0x0f, 0xf8,
  0x11, 0xcc, 0xec, 0x08, 0xe4, 0xd6, 0xd0, 0xf7, 0xfa, 0xfa, 0xf7, 0xf7,
  0xf3, 0xf5, 0x11, 0xe5, 0xf8, 0xc5, 0xf8, 0x24, 0xf6, 0x06, 0x0e, 0xfd,
  0xe5, 0xfe, 0xfc, 0xea, 0x21, 0xf2, 0xf8, 0xde, 0x03, 0x08, 0xfc, 0xfa,
  0x1e, 0x0e, 0x0e, 0xfd, 0xfe, 0xfb, 0x02, 0xfb, 0x05, 0x01, 0x11, 0xef,
  0x00, 0x0e, 0xff, 0x18, 0x14, 0xfc, 0xfb, 0xf2, 0xdd, 0x66, 0x54, 0x4f,
  0xf8, 0x06, 0x9c, 0x01, 0xc4, 0xea, 0xe7, 0xbe, 0xfb, 0x28, 0x59, 0xff,
  0x1c, 0xcd, 0xf5, 0x26, 0xc1, 0x1e, 0xe3, 0xc2, 0x21, 0xf1, 0x75, 0x10,
  0x3e, 0x12, 0xfc, 0x2b, 0x0b, 0xb4, 0xe4, 0x0d, 0xfd, 0x01, 0x6f, 0xe9,
  0xfa, 0xfd, 0x06, 0x16, 0x49, 0xae, 0xdd, 0xce, 0x1e, 0x10, 0xe7, 0xc6,
  0x05, 0xed, 0xdd, 0x3d, 0x04, 0x0b, 0x29, 0x0d, 0xe6, 0x07, 0x01, 0x3c,
  0x0d, 0x22, 0xf0, 0xec, 0x06, 0xbd, 0xed, 0xef, 0x15, 0xd6, 0xe9, 0x0c,
  0xfc, 0x81, 0x88, 0xea, 0xf6, 0xfc, 0x2a, 0xec, 0x02, 0xe4, 0xfd, 0xf0,
  0xaf, 0xef, 0xde, 0xd5, 0x0a, 0x06, 0x95, 0x19, 0x14, 0x23, 0x0c, 0xd9,
  0xce, 0xe9, 0x22, 0x0c, 0xb1, 0xfb, 0x16, 0xcc, 0x3a, 0x2b, 0x4b, 0xfe,
  0x0e, 0xe8, 0x12, 0xd1, 0xd3, 0x06, 0xc7, 0xfe, 0x18, 0x31, 0x1c, 0x52,
  0x11, 0x04, 0x44, 0x0d, 0xff, 0xbe, 0xe0, 0xdc, 0x06, 0x1c, 0xf9, 0x0a,
  0xe3, 0x27, 0xd6, 0xe1, 0xf3, 0x2f, 0xd8, 0xd1, 0x03, 0x08, 0x01, 0xec,
  0x39, 0x2a, 0xff, 0xfb, 0x05, 0x04, 0xf3, 0xde, 0xd8, 0x19, 0xdb, 0x1e,
  0xa9, 0xfc, 0xfa, 0xfb, 0xd2, 0xba, 0x3a, 0x21, 0x16, 0xb9, 0xf2, 0xdd,
  0x7f, 0xe9, 0x0e, 0xe8, 0xfe, 0x24, 0x1d, 0x18, 0xe4, 0xdc, 0xf8, 0xfc,
  0xc4, 0xfb, 0x45, 0x0e, 0xf3, 0x1a, 0x0f, 0x02, 0xe7, 0x1c, 0xf4, 0xe1,
  0xf2, 0xd6, 0x07, 0xf4, 0xea, 0x0c, 0xdd, 0x04, 0x17, 0xf9, 0xd5, 0x23,
  0x13, 0xfc, 0xc5, 0x02, 0x0f, 0x13, 0xd8, 0x06, 0x0c, 0xf7, 0xf5, 0xa8,
  0x04, 0x09, 0xf2, 0x1a, 0xf5, 0x10, 0xfd, 0x00, 0xfc, 0x26, 0x13, 0xb0,
  0xea, 0xf7, 0x15, 0x02, 0xd5, 0xf0, 0x17, 0xfc, 0xee, 0x1a, 0xef, 0xeb,
  0x19, 0xe9, 0xff, 0xf7, 0x05, 0x18, 0x04, 0x09, 0xe0, 0x00, 0xf5, 0x13,
  0xef, 0x30, 0x28, 0x06, 0x27, 0xdd, 0x62, 0xf8, 0x09, 0xcf, 0xed, 0xc2,
  0x08, 0xe4, 0xc6, 0x2a, 0x2b, 0x14, 0xe5, 0xc9, 0x0e, 0x08, 0x11, 0x68,
  0xf9, 0xf0, 0xc5, 0x0d, 0xa4, 0x2c, 0xed, 0x0f, 0xd8, 0x28, 0xd3, 0x20,
  0x0c, 0xa0, 0x61, 0x2e, 0x3a, 0xe7, 0x1a, 0x08, 0x29, 0xf2, 0xe4, 0xae,
  0xf7, 0xe6, 0xb3, 0x20, 0x10, 0x01, 0x27, 0xea, 0x62, 0x0d, 0xcd, 0xfa,
  0xf8, 0xf7, 0xfd, 0x1d, 0x6a, 0x35, 0xf9, 0xf4, 0x20, 0x15, 0x08, 0x05,
  0xe8, 0xdd, 0xe5, 0x10, 0xc2, 0x18, 0x9e, 0x8d, 0x1c, 0xbf, 0x05, 0xe1,
  0x0b, 0xf5, 0x8e, 0x25, 0xe9, 0xbd, 0x0a, 0x7f, 0x02, 0xf9, 0xef, 0xe0,
  0x07, 0x27, 0xfe, 0xf3, 0x11, 0x69, 0x0d, 0x1b, 0x30, 0x22, 0xf8, 0xf8,
  0x05, 0xf7, 0xd8, 0x01, 0xfd, 0x1a, 0x36, 0x4b, 0x06, 0x0b, 0x09, 0xd1,
  0x0b, 0x00, 0x0d, 0xf1, 0x20, 0xd1, 0xcd, 0x07, 0x10, 0xb6, 0xd8, 0xbc,
  0xfc, 0xf4, 0xf9, 0x02, 0xe6, 0x11, 0x11, 0x11, 0xf1, 0xf1, 0x22, 0x04,
  0x0b, 0x0f, 0x05, 0x0d, 0x0e, 0x0b, 0xcd, 0xeb, 0x06, 0x05, 0xec, 0xfa,
  0xe2, 0x16, 0xf1, 0x10, 0xeb, 0x03, 0xf9, 0x08, 0xf9, 0xe0, 0x01, 0x1c,
  0x1f, 0x04, 0x04, 0x05, 0x81, 0xfd, 0x0a, 0x88, 0xee, 0xfa, 0x07, 0x14,
  0xe6, 0x07, 0x0c, 0xe1, 0xe4, 0x0e, 0xd2, 0x07, 0xe3, 0x0b, 0x14, 0xe4,
  0xed, 0xeb, 0x14, 0xe0, 0xfa, 0xef, 0x15, 0xfb, 0xe8, 0xff, 0x09, 0xee,
  0x21, 0x13, 0xbe, 0x24, 0x06, 0x06, 0xfc, 0x01, 0xf0, 0x0a, 0xef, 0xee,
  0x0e, 0x00, 0xd9, 0xea, 0xf2, 0xf7, 0xf6, 0x0d, 0xfe, 0x0b, 0xec, 0x00,
  0x12, 0x1e, 0xf8, 0xeb, 0xd0, 0xed, 0x0d, 0x02, 0xb3, 0x23, 0x09, 0xf5,
  0xf3, 0x1c, 0xdd, 0xe8, 0x05, 0xf4, 0xe6, 0x0d, 0xf9, 0xee, 0x0f, 0xe4,
  0xea, 0x06, 0x09, 0xf6, 0x05, 0x01, 0x10, 0x0e, 0xf0, 0x12, 0x07, 0xee,
  0xf6, 0x0e, 0x16, 0x19, 0xfd, 0x0b, 0x21, 0x02, 0xf7, 0x02, 0x09, 0x09,
  0x0f, 0xfe, 0x10, 0x1f, 0x01, 0x08, 0x09, 0xfb, 0x0b, 0xf5, 0xff, 0x0a,
  0xf4, 0x03, 0x04, 0xfc, 0xf9, 0x02, 0xf6, 0xee, 0x0b, 0x05, 0xfe, 0x01,
  0x7f, 0x0b, 0x14, 0x57, 0x04, 0x09, 0x16, 0x0b, 0xfc, 0x08, 0xff, 0x02,
  0x0a, 0x00, 0x27, 0x0a, 0x02, 0xe9, 0x05, 0x0e, 0xf3, 0xfc, 0x18, 0x1c,
  0x10, 0x0f, 0xfc, 0x08, 0x02, 0x08, 0xfe, 0x04, 0x0d, 0x12, 0xea, 0x02,
  0xf7, 0x0a, 0xfd, 0x08, 0x00, 0xfb, 0x25, 0x11, 0x0c, 0x21, 0x04, 0x05,
  0x02, 0x05, 0x06, 0xf8, 0x1e, 0xfd, 0x00, 0x05, 0xf3, 0x0e, 0x06, 0xf8,
  0x06, 0xfd, 0x0f, 0x08, 0x0d, 0x13, 0x09, 0x05, 0x08, 0x03, 0xfd, 0xfb,
  0xfd, 0xf7, 0xf2, 0x18, 0xf6, 0x03, 0x00, 0x0a, 0xf0, 0x04, 0x03, 0x02,
  0xf8, 0x53, 0xf8, 0xe0, 0xfa, 0xe7, 0x05, 0xd9, 0x36, 0x06, 0x26, 0xe1,
  0x07, 0xfb, 0xeb, 0x03, 0x1b, 0x12, 0x09, 0x00, 0x21, 0x30, 0x29, 0x61,
  0x00, 0x06, 0xe6, 0x0a, 0x1e, 0x18, 0x11, 0xf7, 0xf4, 0xfa, 0x12, 0x05,
  0x06, 0xfb, 0x41, 0xe9, 0x26, 0xcc, 0x08, 0xff, 0x57, 0xef, 0xf2, 0x37,
  0xf3, 0xc2, 0xf1, 0x09, 0xff, 0x48, 0xf4, 0x01, 0x47, 0xf6, 0x00, 0xd0,
  0xfb, 0xec, 0xec, 0x09, 0x7f, 0xf9, 0x15, 0x32, 0x19, 0x38, 0x01, 0x0c,
  0x27, 0x1e, 0xf8, 0xf8, 0xdb, 0xfe, 0x14, 0xf0, 0xdc, 0x07, 0x0d, 0xe8,
  0x03, 0xf5, 0x00, 0xd9, 0xf2, 0x18, 0x09, 0x55, 0xfd, 0xf5, 0xf1, 0x0b,
  0xee, 0xfe, 0x05, 0xff, 0x13, 0xf0, 0xf7, 0x00, 0x18, 0x06, 0x02, 0x04,
  0x06, 0x08, 0xf8, 0xfe, 0x14, 0x11, 0x29, 0x19, 0xf2, 0x11, 0x14, 0xde,
  0x09, 0x01, 0xf9, 0xe7, 0x11, 0x11, 0x00, 0x0a, 0x04, 0x7f, 0x22, 0xda,
  0x0a, 0xcc, 0x16, 0xdf, 0x12, 0x1b, 0x2a, 0xf7, 0x07, 0x01, 0xcb, 0x0d,
  0xef, 0x12, 0xf4, 0xfe, 0x0d, 0x15, 0x09, 0x74, 0xfb, 0xee, 0xd5, 0x25,
  0xef, 0xf1, 0xf9, 0x11, 0x0d, 0x15, 0xf5, 0x1a, 0xdc, 0xfd, 0xeb, 0x03,
  0x2e, 0x03, 0xf8, 0xfa, 0xd8, 0x08, 0x0c, 0xee, 0x02, 0x10, 0x02, 0xe8,
  0x15, 0x04, 0x01, 0x02, 0x40, 0x08, 0x1c, 0xfe, 0xf0, 0xf6, 0x1b, 0x1b,
  0x38, 0x00, 0x0c, 0xf4, 0x03, 0x2c, 0xec, 0x06, 0x1e, 0xe5, 0xfa, 0x09,
  0xf8, 0x3c, 0xd1, 0xd7, 0xe4, 0xfa, 0xf9, 0x03, 0xea, 0xe4, 0x9a, 0xf1,
  0x14, 0xfc, 0x09, 0x20, 0xfa, 0x02, 0xdf, 0xe7, 0xfa, 0x10, 0x09, 0xf4,
  0x20, 0xce, 0xeb, 0xe1, 0xec, 0x05, 0xd7, 0xf6, 0x34, 0xb6, 0x03, 0x03,
  0xf8, 0x09, 0xf4, 0x26, 0xfc, 0x15, 0x3a, 0xfe, 0xec, 0xf1, 0xfb, 0xfa,
  0xee, 0xf3, 0xef, 0x0c, 0x0f, 0x4d, 0x36, 0xe8, 0xf0, 0x18, 0xd9, 0xfe,
  0xc6, 0xfd, 0xc6, 0xf1, 0x0f, 0xcf, 0xb0, 0x1f, 0x05, 0xfa, 0x0b, 0x23,
  0x17, 0xa4, 0xc5, 0x37, 0xe4, 0xf0, 0x10, 0x18, 0xd4, 0x01, 0x00, 0xea,
  0xcc, 0x33, 0x0c, 0x06, 0x02, 0x1c, 0x31, 0x1e, 0xa0, 0x0a, 0x09, 0xe3,
  0x24, 0x0e, 0x1d, 0x36, 0x04, 0xef, 0x0d, 0xce, 0x0f, 0x04, 0x00, 0xca,
  0x52, 0x2c, 0x27, 0xdf, 0xcc, 0x08, 0x36, 0xa4, 0xfd, 0xf8, 0xf4, 0x26,
  0xde, 0x5d, 0x00, 0xc2, 0xe4, 0x1e, 0xfc, 0xcd, 0xde, 0x1c, 0x47, 0x96,
  0xdd, 0xd1, 0x01, 0xfe, 0xcf, 0x10, 0xb0, 0xc1, 0x18, 0x20, 0xc6, 0xe4,
  0xfb, 0xbe, 0xa5, 0xdf, 0x2e, 0xeb, 0xe1, 0xec, 0x0d, 0xe3, 0xb2, 0x2f,
  0xd1, 0x21, 0xc1, 0xf0, 0xf9, 0xe5, 0xae, 0xe4, 0x02, 0x37, 0xf6, 0xdd,
  0x39, 0x18, 0x3e, 0xd8, 0xca, 0xb1, 0xfc, 0xeb, 0x05, 0x06, 0x93, 0x81,
  0x02, 0x49, 0x00, 0x0b, 0x02, 0xf4, 0x20, 0xfa, 0x23, 0xf9, 0x26, 0xe7,
  0x05, 0xfc, 0x20, 0x04, 0x19, 0xfd, 0xf8, 0xfe, 0x15, 0xf2, 0xfd, 0x39,
  0xf3, 0x04, 0x06, 0x0a, 0xe2, 0x17, 0xf3, 0xf3, 0xe8, 0x08, 0xf7, 0x04,
  0x04, 0x00, 0x31, 0xf7, 0x19, 0xfe, 0x05, 0x00, 0x97, 0x07, 0x14, 0xf0,
  0xfe, 0x05, 0xfb, 0xfa, 0x06, 0x23, 0xf4, 0xf3, 0x35, 0xeb, 0xf1, 0xfd,
  0x07, 0x04, 0xfc, 0xee, 0x7f, 0x06, 0x1d, 0x0c, 0xfe, 0x27, 0x0d, 0xf8,
  0x08, 0xf8, 0xf6, 0x07, 0xe1, 0xfb, 0x0a, 0x10, 0xea, 0xf2, 0xff, 0x08,
  0x00, 0xfe, 0xed, 0x1c, 0xf6, 0x03, 0x02, 0x3d, 0x05, 0x04, 0xfc, 0xfa,
  0x05, 0x09, 0x06, 0xfd, 0x2b, 0x02, 0xff, 0xf2, 0x09, 0x25, 0xea, 0xf9,
  0xd5, 0x21, 0xf8, 0xfe, 0xfb, 0x13, 0x1a, 0x26, 0xf4, 0x11, 0x25, 0x08,
  0x01, 0x07, 0x04, 0x0e, 0x1a, 0x0a, 0xd9, 0x01, 0x0b, 0xd2, 0x0a, 0x0f,
  0x09, 0x11, 0xdf, 0x03, 0xbc, 0x24, 0xd2, 0xe9, 0x02, 0x21, 0x26, 0xdf,
  0x0f, 0x14, 0x04, 0x0c, 0x09, 0x27, 0x14, 0xac, 0xff, 0x06, 0xfb, 0xd3,
  0xfb, 0x2a, 0xf4, 0x04, 0xf6, 0xf5, 0xea, 0x01, 0xe7, 0xb2, 0x28, 0x0b,
  0xf1, 0xb6, 0x06, 0xd3, 0x7f, 0x07, 0xfa, 0x07, 0x03, 0x24, 0x1d, 0xde,
  0xe4, 0xcf, 0x0f, 0xef, 0xf0, 0xf5, 0x09, 0x1d, 0x03, 0x09, 0xe0, 0x0a,
  0xb1, 0x15, 0x02, 0xd9, 0x13, 0x12, 0xf4, 0x02, 0xd8, 0x07, 0xcc, 0x0d,
  0x29, 0xc1, 0x03, 0x11, 0xff, 0x1d, 0xda, 0x0e, 0xf0, 0x12, 0xf1, 0x1a,
  0x02, 0xf0, 0x15, 0xda, 0xf4, 0x00, 0x13, 0x0e, 0xf2, 0x1c, 0xff, 0xf3,
  0xef, 0x48, 0xff, 0xb0, 0xdb, 0xf0, 0x08, 0x1a, 0xec, 0x1c, 0x1e, 0xf8,
  0xf3, 0x09, 0xf1, 0xb4, 0xf3, 0xeb, 0xbb, 0x07, 0x1d, 0xfc, 0x0c, 0xfb,
  0xdb, 0xfd, 0x02, 0x02, 0xf1, 0x50, 0x0c, 0xfa, 0xfa, 0xd4, 0x4b, 0x1e,
  0x1a, 0x0c, 0x0c, 0xdf, 0x0d, 0x0d, 0xde, 0xfe, 0x02, 0xfa, 0x13, 0x12,
  0xd7, 0x28, 0xf2, 0x44, 0xf1, 0x07, 0x0a, 0x1a, 0xea, 0xfd, 0x11, 0xfd,
  0x24, 0xee, 0xe6, 0x05, 0x42, 0xf1, 0x48, 0x16, 0xfe, 0xf4, 0x0e, 0x09,
  0x4a, 0x02, 0x09, 0xbe, 0x1d, 0x14, 0xe5, 0x0c, 0x12, 0x3d, 0xf0, 0xe7,
  0x5e, 0xde, 0x19, 0xf7, 0x00, 0x13, 0x0f, 0x12, 0x7f, 0x15, 0x0a, 0x43,
  0xd7, 0x4b, 0x13, 0xfd, 0x3b, 0xd2, 0x0e, 0x09, 0xef, 0x23, 0x36, 0x02,
  0xf5, 0xec, 0xed, 0xfa, 0xff, 0xe9, 0x09, 0x08, 0xf7, 0xe9, 0x21, 0x1e,
  0xfe, 0xee, 0xdd, 0x02, 0x03, 0xeb, 0x10, 0x09, 0x11, 0x00, 0x0d, 0x12,
  0xf3, 0x1d, 0xe2, 0x16, 0xd4, 0xee, 0x00, 0xfa, 0xf1, 0x0f, 0x3e, 0x33,
  0x03, 0xfb, 0x20, 0xe0, 0x0e, 0xfe, 0x12, 0xe1, 0x17, 0xe8, 0xf8, 0x10,
  0x00, 0xbc, 0xe1, 0xdc, 0xff, 0xff, 0xd7, 0x13, 0xf1, 0x10, 0xf5, 0xfd,
  0x03, 0xf8, 0x2d, 0x01, 0x09, 0xf9, 0xe4, 0xf3, 0x00, 0xea, 0xed, 0xc0,
  0xfe, 0xfb, 0xf1, 0x0f, 0xe7, 0x03, 0x04, 0xfd, 0xec, 0xe3, 0xe7, 0x00,
  0xe9, 0xee, 0xf0, 0xfe, 0xf7, 0x00, 0x07, 0x01, 0xc8, 0x03, 0x0c, 0xaa,
  0xfd, 0x08, 0xe5, 0xe6, 0xfc, 0xfd, 0xff, 0xe8, 0xc5, 0xf8, 0x0b, 0xfb,
  0x04, 0x0f, 0xe6, 0xf4, 0x81, 0x06, 0xf7, 0x9f, 0x0f, 0xea, 0xde, 0xfe,
  0x03, 0xd5, 0x04, 0xfa, 0xfc, 0x03, 0xd4, 0x03, 0x01, 0xf2, 0x00, 0xfd,
  0x09, 0x12, 0xc4, 0xf0, 0x0e, 0xdd, 0x07, 0xb9, 0x08, 0xff, 0x05, 0xfc,
  0xf1, 0x03, 0xfe, 0x06, 0xcb, 0x13, 0x06, 0x16, 0xf6, 0xf4, 0x05, 0x02,
  0xbf, 0xf6, 0x11, 0x02, 0x01, 0x02, 0xf2, 0xc5, 0xf1, 0xf0, 0xfb, 0xfc,
  0x04, 0xf6, 0x01, 0xde, 0x0a, 0xf7, 0x00, 0xf3, 0xf9, 0x5d, 0xef, 0x0d,
  0x00, 0x03, 0x36, 0x0b, 0x0d, 0xdf, 0xb8, 0xf4, 0x00, 0x10, 0xd1, 0xfe,
  0xf4, 0x29, 0xfe, 0xf0, 0xf7, 0x1d, 0xcd, 0xb7, 0xf8, 0x21, 0x2c, 0xfc,
  0x08, 0x21, 0x19, 0xfb, 0x42, 0xf2, 0x0f, 0xed, 0x12, 0x0c, 0xc2, 0xe6,
  0xe9, 0xfb, 0xee, 0x15, 0xbe, 0x0b, 0xf4, 0xdd, 0x09, 0xf7, 0x13, 0xe7,
  0xeb, 0x26, 0xd3, 0x0a, 0x0c, 0x00, 0xc3, 0xaf, 0xfe, 0x18, 0x0a, 0xec,
  0xd3, 0x07, 0x0d, 0xf1, 0xa2, 0xe9, 0xda, 0x00, 0x0b, 0xed, 0x08, 0xee,
  0xed, 0xd2, 0x46, 0x27, 0x0b, 0xf4, 0x2a, 0x0c, 0xf3, 0xd4, 0xff, 0xba,
  0xca, 0xd1, 0xe6, 0x35, 0xeb, 0xfd, 0xbe, 0xf4, 0xed, 0xe2, 0xdb, 0xfa,
  0xfc, 0x81, 0xfc, 0x1b, 0x2b, 0xf5, 0x0d, 0xe8, 0x0d, 0xe7, 0x0e, 0x00,
  0xe3, 0xe9, 0xff, 0xfc, 0x1e, 0x08, 0xf7, 0xca, 0xef, 0x05, 0xe6, 0xd9,
  0x19, 0x0f, 0x00, 0xd7, 0xfe, 0x81, 0xe7, 0xdb, 0xf6, 0xf0, 0xd1, 0x1a,
  0xe2, 0x0b, 0x01, 0xee, 0xf9, 0x18, 0x0c, 0xf1, 0x04, 0xe8, 0xea, 0xd9,
  0x08, 0x03, 0x18, 0xbb, 0x02, 0xff, 0xd2, 0xfa, 0x04, 0x01, 0xfc, 0xe7,
  0xf9, 0xfa, 0xf9, 0x04, 0xe6, 0xf7, 0xe1, 0xf9, 0x0c, 0xdf, 0x06, 0xf5,
  0x9a, 0xfb, 0xff, 0x9d, 0xf1, 0x0b, 0xfb, 0xf6, 0xf9, 0xfa, 0xfb, 0xd8,
  0xe5, 0xe4, 0xf5, 0xfa, 0xfa, 0x0a, 0x11, 0x11, 0xaa, 0x0a, 0x0f, 0xbe,
  0x08, 0x02, 0xeb, 0x07, 0xe2, 0xe0, 0x09, 0x05, 0x02, 0xfd, 0xf5, 0x16,
  0x06, 0x0e, 0xfb, 0x06, 0x06, 0x00, 0xe8, 0xbb, 0x06, 0x04, 0x01, 0xeb,
  0xff, 0xfd, 0x20, 0x0d, 0xfa, 0xfa, 0xfd, 0xe6, 0x01, 0x0b, 0x08, 0xfd,
  0xe3, 0xf7, 0x07, 0x1a, 0x90, 0xf9, 0x16, 0xfa, 0x06, 0xfa, 0xe4, 0xe2,
  0xf8, 0xf7, 0xe1, 0x01, 0x0a, 0xf8, 0xfa, 0xcf, 0xe7, 0xfa, 0xfb, 0x11,
  0xfe, 0x1c, 0x05, 0xfd, 0xfe, 0x05, 0x10, 0xfe, 0xfb, 0x03, 0x12, 0x02,
  0xfe, 0xf7, 0x13, 0x0c, 0x09, 0x14, 0xff, 0xf5, 0x01, 0x05, 0xed, 0x07,
  0x01, 0x03, 0x0f, 0x0a, 0x0f, 0xf9, 0x0f, 0x10, 0x13, 0x1a, 0x00, 0xfd,
  0xf8, 0x0e, 0x06, 0x0b, 0xf4, 0x08, 0xfd, 0x00, 0x7f, 0xfc, 0x04, 0x2f,
  0xfd, 0x0b, 0x18, 0xec, 0x00, 0xed, 0xff, 0x07, 0xf8, 0x0c, 0x02, 0x02,
  0xfe, 0xed, 0x08, 0xfa, 0xec, 0xf1, 0x04, 0x12, 0xff, 0xfc, 0xf9, 0xfb,
  0xf9, 0x13, 0x02, 0xf7, 0x08, 0x0b, 0xff, 0xf2, 0xfc, 0x0c, 0x0a, 0x08,
  0xfe, 0xfd, 0x0f, 0x12, 0x02, 0x01, 0xf9, 0xf6, 0xf9, 0xfc, 0xee, 0xfe,
  0x14, 0xf9, 0x00, 0x05, 0xf4, 0x0e, 0xfd, 0x0e, 0xf1, 0x01, 0x07, 0xfb,
  0x08, 0xfe, 0x0b, 0x00, 0x06, 0xfc, 0x09, 0x0a, 0x07, 0xfa, 0x07, 0x06,
  0xff, 0xfd, 0xf7, 0x05, 0x04, 0x09, 0x01, 0xf5, 0xfc, 0x14, 0x09, 0xfe,
  0xf9, 0xf6, 0x18, 0xf6, 0x02, 0xf1, 0xf3, 0xef, 0xfe, 0xf5, 0xd2, 0xf0,
  0xf8, 0xef, 0xf6, 0xfc, 0xf9, 0x03, 0x00, 0x22, 0x04, 0xfb, 0xf0, 0x02,
  0x00, 0xf6, 0x05, 0xff, 0x10, 0xf0, 0x09, 0x02, 0x0c, 0x01, 0x0a, 0xfc,
  0x15, 0xfc, 0x02, 0xf9, 0x81, 0xf8, 0xf3, 0xec, 0xf9, 0x01, 0xec, 0xfc,
  0x00, 0x1b, 0x00, 0x08, 0x06, 0xee, 0xee, 0xef, 0x04, 0x00, 0x00, 0x08,
  0x01, 0x02, 0xf3, 0x1c, 0xe9, 0xf1, 0x07, 0x00, 0x00, 0xe0, 0xf4, 0x09,
  0xe6, 0xf0, 0x06, 0x06, 0x01, 0x02, 0xf5, 0xfd, 0xfb, 0xfe, 0x0e, 0x0c,
  0xf9, 0xf8, 0x01, 0x18, 0xfb, 0xff, 0x04, 0xf9, 0xfa, 0xfc, 0x04, 0x10,
  0x15, 0x02, 0x09, 0xee, 0x17, 0xfd, 0x09, 0xff, 0x0b, 0xf3, 0xfd, 0x02,
  0xf9, 0x01, 0x06, 0x1b, 0xfa, 0x05, 0xeb, 0xff, 0xfa, 0xfd, 0xfc, 0x09,
  0xff, 0xff, 0x07, 0xff, 0x06, 0xc0, 0x03, 0xfb, 0x24, 0xfe, 0xec, 0x0d,
  0x07, 0x1f, 0xf0, 0xe9, 0x08, 0xea, 0x12, 0x09, 0x04, 0xed, 0xf1, 0xea,
  0xec, 0xf6, 0x07, 0x07, 0xfb, 0xe5, 0xf7, 0x06, 0x0c, 0xf3, 0xfb, 0xf7,
  0xd9, 0xc7, 0x01, 0x14, 0xf4, 0x10, 0x1a, 0x02, 0xf4, 0x1a, 0x05, 0x12,
  0x81, 0x14, 0xe8, 0xe1, 0x08, 0x06, 0xed, 0xd5, 0xf9, 0xe1, 0x0a, 0xeb,
  0xea, 0xf3, 0x29, 0xf1, 0x00, 0x13, 0xff, 0xee, 0x08, 0x03, 0x04, 0xf5,
  0x25, 0xe9, 0xe9, 0x0e, 0xf3, 0xe8, 0x21, 0x04, 0xdb, 0xf2, 0xf6, 0xfe,
  0x02, 0xf0, 0x24, 0x00, 0x10, 0xfe, 0xff, 0xf7, 0xf9, 0x08, 0x15, 0x11,
  0xfe, 0xf0, 0x1e, 0x03, 0xf8, 0x1c, 0x0c, 0xe7, 0xef, 0x28, 0xf0, 0x20,
  0xef, 0x01, 0xdb, 0x12, 0xfb, 0x0a, 0xf5, 0x0c, 0x10, 0xfe, 0x03, 0xeb,
  0xe9, 0x03, 0xef, 0xfc, 0xed, 0xe4, 0x08, 0x01, 0xe4, 0xe3, 0xdd, 0x19,
  0x01, 0x81, 0x2a, 0x21, 0x03, 0x32, 0xde, 0x2b, 0xf4, 0x22, 0xde, 0xf1,
  0xf4, 0xe9, 0x3f, 0xf9, 0x0e, 0xf1, 0x13, 0x1b, 0x27, 0x43, 0xf0, 0x11,
  0xfc, 0x02, 0xfc, 0xe5, 0x11, 0xe8, 0x08, 0x0d, 0xd7, 0xdd, 0xee, 0x17,
  0xfa, 0xfd, 0x20, 0x0d, 0xfa, 0x19, 0x01, 0x0b, 0xfd, 0x01, 0x16, 0xfa,
  0xff, 0x18, 0x35, 0xeb, 0xd6, 0x07, 0x12, 0x09, 0x14, 0x13, 0x03, 0x01,
  0xef, 0x1b, 0xf9, 0xf3, 0xdc, 0x00, 0xef, 0xfb, 0xf9, 0xd7, 0x18, 0xf8,
  0x09, 0x26, 0x00, 0x18, 0x27, 0xca, 0x3d, 0xfe, 0x23, 0xff, 0xea, 0xf4,
  0xee, 0x07, 0xeb, 0x0d, 0xff, 0x09, 0x0f, 0xc0, 0x04, 0x01, 0xfc, 0xfd,
  0x06, 0x1c, 0x02, 0xf7, 0xf9, 0x43, 0x12, 0xf7, 0xd5, 0xea, 0x1c, 0x04,
  0x0e, 0xec, 0x12, 0xfb, 0x0a, 0x16, 0xcb, 0xf0, 0x0a, 0xef, 0xec, 0x15,
  0xf6, 0x11, 0x01, 0xfd, 0xf2, 0x0c, 0xee, 0x18, 0x05, 0x51, 0x20, 0xec,
  0x09, 0x0c, 0x1c, 0xf7, 0x23, 0x08, 0x1e, 0xeb, 0x04, 0x08, 0xe1, 0x17,
  0x01, 0x0c, 0x01, 0x0c, 0xf3, 0x05, 0x00, 0x15, 0xf6, 0x00, 0x02, 0x02,
  0xfc, 0xfc, 0x03, 0x07, 0x1a, 0x09, 0x0d, 0x0c, 0x0e, 0xe8, 0x02, 0x05,
  0x0e, 0xf0, 0x01, 0xfb, 0x09, 0xff, 0x00, 0xdb, 0xfe, 0xea, 0x19, 0x16,
  0x05, 0x15, 0xf4, 0xeb, 0x11, 0xfc, 0xf0, 0x02, 0x05, 0xf9, 0xff, 0x0a,
  0x7f, 0x02, 0x11, 0x13, 0xe5, 0x0e, 0x08, 0x06, 0x04, 0xf2, 0xfd, 0xfa,
  0x06, 0x03, 0xe7, 0x02, 0x01, 0x0b, 0x0c, 0xfd, 0x0b, 0xfd, 0x12, 0x23,
  0xf8, 0x18, 0xff, 0x0a, 0xfc, 0xee, 0xff, 0x05, 0xf4, 0x0d, 0x08, 0x10,
  0x0e, 0xdd, 0x00, 0xf3, 0x09, 0x08, 0xf2, 0xf5, 0xf5, 0x16, 0xfa, 0x03,
  0xf9, 0x11, 0x00, 0x3d, 0x0c, 0x0c, 0x0b, 0xed, 0x07, 0x0b, 0x00, 0xf1,
  0x01, 0xf1, 0xe6, 0xfc, 0x07, 0xd8, 0x03, 0xfe, 0xe4, 0xf7, 0x05, 0xf1,
  0xda, 0x1e, 0x07, 0x29, 0xfb, 0xf6, 0x1f, 0xf2, 0xee, 0x30, 0x09, 0xf4,
  0x15, 0xe0, 0x10, 0xfe, 0x04, 0x0c, 0xfb, 0xf3, 0x04, 0x08, 0x01, 0x04,
  0xe7, 0x1b, 0x02, 0xf4, 0xed, 0xf4, 0x10, 0xe8, 0x31, 0xea, 0xfd, 0xfd,
  0x7f, 0x01, 0x35, 0x6f, 0x0c, 0x11, 0x20, 0xfd, 0xfd, 0xe9, 0x05, 0x0e,
  0xfb, 0xf8, 0x49, 0x0c, 0x06, 0xf0, 0x17, 0xfc, 0xe9, 0xef, 0x06, 0x22,
  0x2b, 0x1e, 0xfc, 0xf2, 0xf3, 0x19, 0xed, 0x0b, 0x26, 0x27, 0xf5, 0x02,
  0xef, 0x1c, 0x05, 0x01, 0xf8, 0x02, 0xf1, 0x35, 0x1d, 0x43, 0xed, 0xf9,
  0xfc, 0xfc, 0xee, 0x0d, 0x28, 0x03, 0xf8, 0x06, 0xf3, 0xfe, 0x0a, 0xf3,
  0xf4, 0xf1, 0x26, 0xec, 0xf1, 0x00, 0x13, 0x05, 0x0c, 0xee, 0xf8, 0x0f,
  0xf7, 0xf3, 0x05, 0x2e, 0x0c, 0x11, 0xf5, 0xfa, 0xe8, 0x0f, 0x10, 0xfb,
  0x1a, 0xf5, 0xff, 0xff, 0x04, 0x00, 0x00, 0x00, 0x00, 0x01, 0x00, 0x00,
  0xc4, 0x28, 0x00, 0x00, 0x85, 0x30, 0x00, 0x00, 0x00, 0xf3, 0xff, 0xff,
  0x40, 0xb6, 0xff, 0xff, 0x44, 0x0d, 0x00, 0x00, 0xcc, 0x1e, 0x00, 0x00,
  0xc0, 0xf7, 0xff, 0xff, 0x6a, 0x1f, 0x00, 0x00, 0xe0, 0x23, 0x00, 0x00,
  0x64, 0xdd, 0xff, 0xff, 0xeb, 0x19, 0x00, 0x00, 0x82, 0xe8, 0xff, 0xff,
  0x0d, 0x17, 0x00, 0x00, 0x81, 0x4c, 0x00, 0x00, 0xa4, 0x1a, 0x00, 0x00,
  0x7a, 0xdc, 0xff, 0xff, 0x30, 0xf4, 0xff, 0xff, 0x5b, 0xf2, 0xff, 0xff,
  0x9c, 0x19, 0x00, 0x00, 0xa3, 0x0b, 0x00, 0x00, 0x8d, 0xf4, 0xff, 0xff,
  0xd1, 0x2c, 0x00, 0x00, 0x7f, 0x31, 0x00, 0x00, 0xdd, 0x23, 0x00, 0x00,
  0x4b, 0xf1, 0xff, 0xff, 0x80, 0xe4, 0xff, 0xff, 0x46, 0x3e, 0x00, 0x00,
  0x65, 0x1e, 0x00, 0x00, 0x7a, 0x2d, 0x00, 0x00, 0xc0, 0xe1, 0xff, 0xff,
  0xdf, 0x33, 0x00, 0x00, 0xa9, 0xf4, 0xff, 0xff, 0xe4, 0x19, 0x00, 0x00,
  0x59, 0x22, 0x00, 0x00, 0x97, 0xdd, 0xff, 0xff, 0xf5, 0x4b, 0x00, 0x00,
  0x0c, 0x0f, 0x00, 0x00, 0xf7, 0xd4, 0xff, 0xff, 0xc2, 0x10, 0x00, 0x00,
  0xfe, 0xeb, 0xff, 0xff, 0xe5, 0x37, 0x00, 0x00, 0xe3, 0x2b, 0x00, 0x00,
  0xac, 0x1f, 0x00, 0x00, 0x99, 0x1d, 0x00, 0x00, 0xcc, 0xf9, 0xff, 0xff,
  0x74, 0x0b, 0x00, 0x00, 0x8e, 0x05, 0x00, 0x00, 0x34, 0x16, 0x00, 0x00,
  0x28, 0xd8, 0xff, 0xff, 0x47, 0xe8, 0xff, 0xff, 0x1e, 0x0a, 0x00, 0x00,
  0x7c, 0x41, 0x00, 0x00, 0xc0, 0xe9, 0xff, 0xff, 0x1c, 0x0c, 0x00, 0x00,
  0xf9, 0xe2, 0xff, 0xff, 0x1b, 0x34, 0x00, 0x00, 0xaa, 0x2f, 0x00, 0x00,
  0x3d, 0x31, 0x00, 0x00, 0xcb, 0xec, 0xff, 0xff, 0x4f, 0x10, 0x00, 0x00,
  0xd6, 0x18, 0x00, 0x00, 0x08, 0xe1, 0xff, 0xff, 0xab, 0xeb, 0xff, 0xff,
  0xae, 0xd8, 0xff, 0xff, 0x26, 0xf6, 0xff, 0xff, 0x04, 0x00, 0x00, 0x00,
  0x00, 0x08, 0x00, 0x00, 0xb0, 0x2e, 0xe7, 0x0a, 0x11, 0x10, 0xdc, 0x81,
  0xba, 0xab, 0x09, 0xc5, 0x17, 0x18, 0x17, 0xbe, 0x11, 0x1d, 0x32, 0xd5,
  0x2f, 0x61, 0x2a, 0x09, 0x02, 0xa5, 0x20, 0x49, 0xfe, 0xe5, 0xf1, 0xf9,
  0x2f, 0x97, 0xe1, 0x6f, 0x1d, 0x29, 0xda, 0x04, 0x10, 0x21, 0x19, 0x01,
  0x0a, 0x4e, 0x1a, 0xec, 0xd6, 0x23, 0x04, 0xd8, 0xef, 0xf8, 0xf2, 0x10,
  0x45, 0xcb, 0xe3, 0x04, 0xf0, 0xa9, 0x00, 0xc7, 0xac, 0x1a, 0xf7, 0xe3,
  0xee, 0xe8, 0x0c, 0xf4, 0x10, 0xff, 0xd1, 0x34, 0x0b, 0x02, 0x14, 0x17,
  0x0f, 0x15, 0xba, 0x11, 0x14, 0xef, 0x15, 0xf3, 0xe5, 0xef, 0x26, 0x0e,
  0x92, 0x05, 0x2d, 0xfd, 0x32, 0xf1, 0x08, 0x3a, 0xdf, 0x37, 0x3d, 0x10,
  0x0c, 0x6a, 0xed, 0xf2, 0xf4, 0x81, 0xfc, 0x5f, 0xe7, 0x02, 0x12, 0x37,
  0xfa, 0xc6, 0x11, 0x18, 0x18, 0xda, 0x16, 0xd6, 0xc6, 0x14, 0x12, 0x1d,
  0x36, 0x6c, 0x09, 0xdd, 0x90, 0x0d, 0x46, 0x54, 0xaa, 0xe3, 0x86, 0xbd,
  0xce, 0xe4, 0xea, 0xe3, 0x1d, 0x0c, 0x00, 0x16, 0xcf, 0xb5, 0xb6, 0x2e,
  0xef, 0xe7, 0xb2, 0xff, 0xbd, 0x13, 0xd2, 0x0c, 0x85, 0xef, 0x0a, 0x19,
  0xa4, 0xfb, 0xac, 0x3e, 0xe6, 0xdc, 0x21, 0xff, 0xdf, 0x1a, 0x00, 0x1d,
  0xf4, 0xf0, 0xcd, 0x38, 0xe4, 0xfa, 0x08, 0x6f, 0x81, 0x0a, 0xd6, 0xf1,
  0x67, 0xdd, 0x0f, 0xd1, 0xf5, 0x39, 0x0b, 0xce, 0x07, 0x28, 0x04, 0x07,
  0x70, 0x0a, 0xce, 0xee, 0xd5, 0xd8, 0xc5, 0x1b, 0xe6, 0xc7, 0x1b, 0xe5,
  0xe7, 0x0d, 0x16, 0x6d, 0xe0, 0x03, 0xba, 0xc3, 0x14, 0x2a, 0xdb, 0xea,
  0x11, 0x78, 0x38, 0xd5, 0x0c, 0xd8, 0x20, 0xca, 0xeb, 0xd4, 0xa8, 0xbc,
  0xe9, 0x2a, 0x1d, 0xc5, 0x28, 0x1b, 0x12, 0xe2, 0xdc, 0x27, 0xf8, 0x22,
  0xe4, 0x7f, 0x16, 0xf7, 0x17, 0xcc, 0xf4, 0x3a, 0x15, 0xf0, 0xf6, 0x97,
  0x4d, 0x2e, 0xe9, 0xdc, 0xd4, 0xff, 0x63, 0xdf, 0xcc, 0x27, 0xcf, 0x2e,
  0xe1, 0xdf, 0xee, 0xbf, 0xdf, 0x23, 0xae, 0x00, 0xd8, 0xfa, 0xfe, 0x0d,
  0x22, 0x44, 0xe5, 0xde, 0xcc, 0x06, 0xee, 0x81, 0x19, 0xff, 0xbc, 0xef,
  0x05, 0x86, 0xe9, 0xed, 0x51, 0x40, 0xe6, 0xac, 0x1d, 0xdd, 0x0a, 0xae,
  0xe2, 0x02, 0xc0, 0xd6, 0xe9, 0x3c, 0xf4, 0xce, 0x16, 0xd2, 0xef, 0xea,
  0x05, 0xf2, 0xed, 0xeb, 0x1a, 0x1a, 0xd7, 0xfe, 0x81, 0xd9, 0x0e, 0xdc,
  0x06, 0x28, 0x0e, 0xc5, 0xf2, 0xea, 0x2e, 0xdf, 0xde, 0x28, 0xb8, 0xf9,
  0xff, 0x01, 0xfe, 0x08, 0x2f, 0x0a, 0xc5, 0xf4, 0x45, 0x15, 0xf7, 0xd4,
  0x0a, 0x07, 0xb5, 0x1f, 0x18, 0xeb, 0x1c, 0x00, 0x0e, 0x12, 0xda, 0xcc,
  0xde, 0x0e, 0xf8, 0xff, 0xeb, 0xf0, 0xe4, 0x2e, 0x11, 0x17, 0xdd, 0x13,
  0xfc, 0xdb, 0xe9, 0xf9, 0xed, 0x36, 0xe6, 0xbf, 0x03, 0x40, 0xec, 0x02,
  0xcc, 0xc6, 0xef, 0x20, 0xfa, 0xe4, 0xfb, 0xff, 0xc5, 0xd2, 0x9e, 0xef,
  0x2f, 0x35, 0x3b, 0xaf, 0x05, 0x81, 0x37, 0x0b, 0xc1, 0xf4, 0x0f, 0xf6,
  0xdd, 0xfa, 0xdd, 0x0d, 0x3a, 0x3e, 0x30, 0x29, 0x44, 0x52, 0xe7, 0x1e,
  0x1b, 0xef, 0xd2, 0x1d, 0xf0, 0xf3, 0xd4, 0x42, 0xd8, 0xd6, 0xf5, 0x06,
  0x32, 0xc5, 0x41, 0xe7, 0xd9, 0x04, 0xe2, 0x07, 0x02, 0xf9, 0x07, 0xfa,
  0x0d, 0x25, 0xff, 0xaf, 0x81, 0xed, 0x24, 0xc9, 0xf8, 0x0e, 0x06, 0xe9,
  0xf6, 0xe0, 0x07, 0xe6, 0xe0, 0x24, 0xdd, 0xf3, 0x16, 0xad, 0x0b, 0x3f,
  0x2f, 0x2a, 0x19, 0xd9, 0x36, 0x2e, 0xdb, 0x24, 0x36, 0x1e, 0xcf, 0x05,
  0x2b, 0xeb, 0x06, 0x0f, 0xe8, 0xe1, 0xdc, 0x10, 0xcd, 0xf2, 0xc9, 0xcc,
  0xf6, 0x2d, 0x00, 0xfb, 0x00, 0x04, 0xe4, 0x1e, 0x05, 0x39, 0x08, 0xeb,
  0xe8, 0xcb, 0x44, 0x14, 0x0a, 0x94, 0x03, 0x5b, 0x12, 0x08, 0x33, 0xe4,
  0x11, 0x2a, 0x27, 0xef, 0xfd, 0xf9, 0xd8, 0x04, 0x36, 0x28, 0x40, 0xdb,
  0x21, 0x16, 0xd3, 0xe2, 0x91, 0xce, 0x06, 0x34, 0x3a, 0xa7, 0xf1, 0x31,
  0xed, 0xf3, 0x29, 0x03, 0xdf, 0xfd, 0x04, 0x1a, 0x1e, 0xde, 0x2e, 0xba,
  0xdf, 0x29, 0x26, 0x11, 0x20, 0xad, 0x01, 0xbd, 0xdb, 0xb5, 0x06, 0x06,
  0x27, 0x81, 0x14, 0x14, 0x48, 0xf9, 0x07, 0xcb, 0xef, 0xec, 0xf5, 0x56,
  0x24, 0xfe, 0x81, 0xcd, 0xd1, 0x18, 0xf7, 0xe9, 0xee, 0xf2, 0x19, 0x15,
  0xf7, 0xd3, 0xe4, 0x26, 0xfc, 0xe6, 0xd9, 0xfa, 0xde, 0x20, 0x00, 0x03,
  0xb5, 0x17, 0xeb, 0xeb, 0xfe, 0xf6, 0x18, 0xd9, 0xe0, 0xea, 0xf6, 0xe7,
  0x9f, 0x06, 0x12, 0x0b, 0xe9, 0x04, 0x0e, 0xd5, 0xe7, 0xce, 0xf7, 0x33,
  0xe1, 0xff, 0xdf, 0xf3, 0x1b, 0xb1, 0x0c, 0x07, 0x0e, 0x4b, 0xe2, 0xf2,
  0xe6, 0x34, 0xfc, 0x14, 0x9a, 0x04, 0xa6, 0x21, 0x30, 0xb8, 0xfa, 0x27,
  0xd8, 0xfd, 0x0e, 0xe1, 0xe2, 0x1f, 0xf1, 0x18, 0xf7, 0x11, 0xf8, 0xc5,
  0xd5, 0x14, 0x2a, 0xde, 0xf0, 0x29, 0x06, 0x1e, 0xea, 0xfa, 0xe7, 0x2d,
  0x22, 0x36, 0xd9, 0x81, 0xe8, 0xec, 0xb9, 0x3d, 0x17, 0xbd, 0xe5, 0x41,
  0xcf, 0xfa, 0xd9, 0x29, 0x46, 0x43, 0x3a, 0xd1, 0x15, 0x0b, 0xf0, 0xf3,
  0x99, 0xe8, 0xe7, 0xda, 0xef, 0xba, 0xd6, 0x06, 0x81, 0xb8, 0xe0, 0x23,
  0xea, 0x19, 0x36, 0xdb, 0xde, 0xf1, 0xbf, 0xd2, 0x18, 0x12, 0x4a, 0xc0,
  0xf9, 0xe1, 0xdf, 0x27, 0xd0, 0xae, 0x0b, 0xdb, 0x3a, 0x18, 0xda, 0x3e,
  0x0e, 0x14, 0x00, 0x1c, 0xf9, 0xfe, 0x35, 0x1c, 0x0d, 0xdc, 0x02, 0xd3,
  0xe8, 0x01, 0x12, 0x4b, 0xdf, 0xd1, 0xe9, 0x08, 0x3c, 0xb1, 0xce, 0xf1,
  0xc4, 0x13, 0x03, 0xe9, 0xdf, 0xb5, 0x18, 0x62, 0x15, 0x16, 0xe1, 0xb5,
  0xc5, 0xd4, 0x1b, 0xe7, 0xc9, 0x2f, 0x14, 0xd0, 0x20, 0xff, 0x09, 0x0c,
  0xbd, 0xeb, 0xe4, 0x17, 0x20, 0x04, 0xe6, 0x25, 0x15, 0xdb, 0xaa, 0xf1,
  0xc1, 0x98, 0xb4, 0xe7, 0x1b, 0x35, 0xfa, 0xce, 0xd6, 0xd5, 0x2c, 0xfc,
  0xe4, 0xf3, 0x0c, 0x81, 0xce, 0x18, 0xff, 0xa2, 0xf8, 0xf5, 0x16, 0xc0,
  0xe8, 0x04, 0xe2, 0x25, 0xdd, 0x32, 0x11, 0xd6, 0x0f, 0xa2, 0x0c, 0x24,
  0x2f, 0x9a, 0x1e, 0x97, 0xc0, 0x07, 0x24, 0xf9, 0xc2, 0x46, 0x28, 0xd4,
  0x14, 0x27, 0x1c, 0x17, 0x29, 0x16, 0xd6, 0xe8, 0xe8, 0xd0, 0x12, 0x0a,
  0xed, 0xa8, 0xd5, 0xee, 0xf6, 0xa3, 0xcb, 0x42, 0xea, 0xfa, 0x37, 0xd1,
  0x40, 0x32, 0xe1, 0x18, 0xe7, 0xf6, 0xfd, 0x99, 0xc7, 0x20, 0xf8, 0x3d,
  0xf0, 0xb9, 0x12, 0xa2, 0x05, 0xfb, 0xf3, 0xfe, 0x09, 0x81, 0xf1, 0x0b,
  0xc2, 0x04, 0x27, 0xf4, 0xae, 0xae, 0xfa, 0x2e, 0x5d, 0xe6, 0x8d, 0x11,
  0x1d, 0x1c, 0x15, 0xeb, 0x1a, 0x00, 0xd1, 0x19, 0x35, 0xba, 0x2c, 0xbd,
  0x0b, 0x1e, 0xea, 0xca, 0x96, 0xd0, 0x2a, 0x00, 0x0a, 0xde, 0x17, 0x3a,
  0xe0, 0xcd, 0xf7, 0x03, 0xf8, 0x30, 0xd2, 0xee, 0xea, 0xaa, 0x19, 0x11,
  0x00, 0x08, 0x06, 0x0a, 0xf5, 0xca, 0xf4, 0xca, 0xdc, 0xe4, 0x2b, 0x10,
  0x26, 0x81, 0x03, 0x0e, 0xbd, 0xa8, 0xee, 0xde, 0xd9, 0x3b, 0xe9, 0x83,
  0xe1, 0xe2, 0xdb, 0x0d, 0x4f, 0x09, 0x50, 0xca, 0x16, 0x28, 0xb3, 0xde,
  0x35, 0x49, 0x3a, 0x81, 0xff, 0x90, 0x35, 0x22, 0x42, 0x0a, 0xbb, 0xcf,
  0x08, 0x81, 0xcc, 0x4c, 0x2f, 0x6c, 0xec, 0x2c, 0x2e, 0x31, 0x40, 0x21,
  0x01, 0xc2, 0x07, 0x98, 0x8c, 0xfc, 0x36, 0x07, 0xf6, 0xb9, 0x09, 0xfc,
  0x3c, 0x17, 0xe1, 0x27, 0xf8, 0xfb, 0x02, 0xa8, 0xf4, 0xd6, 0xe6, 0xdc,
  0x00, 0x14, 0x0a, 0x5a, 0x7f, 0x31, 0xf1, 0x11, 0xff, 0x04, 0xf3, 0x02,
  0x07, 0x0b, 0x05, 0x17, 0xc0, 0xea, 0xd5, 0xf4, 0xf3, 0xf9, 0xd3, 0xe8,
  0xf1, 0x19, 0x02, 0x10, 0xdb, 0xe7, 0x10, 0xe9, 0xf5, 0x01, 0x20, 0xf0,
  0xee, 0xde, 0xe9, 0xf3, 0xf8, 0x20, 0x0d, 0x42, 0xe8, 0x02, 0xf4, 0xf5,
  0xfc, 0x0d, 0x0b, 0xea, 0xff, 0x1f, 0xf6, 0xfc, 0x1a, 0x22, 0x02, 0x1e,
  0x0d, 0x42, 0x22, 0x09, 0xc4, 0x69, 0x05, 0x6b, 0xb6, 0xff, 0xbb, 0x1a,
  0x5b, 0xf9, 0xce, 0x17, 0xfb, 0xe7, 0xb3, 0xec, 0x1d, 0x08, 0x48, 0xc6,
  0xd7, 0xea, 0x21, 0x12, 0xdd, 0x1d, 0x55, 0xf4, 0x43, 0x3a, 0x17, 0x24,
  0xdb, 0x01, 0x1f, 0x37, 0x2e, 0x64, 0xe7, 0xb6, 0x06, 0xba, 0x08, 0x3d,
  0x10, 0xe3, 0xe7, 0x7f, 0xe3, 0xfc, 0xe7, 0x31, 0x0f, 0x31, 0x08, 0xcf,
  0x00, 0xb2, 0xee, 0x1c, 0x22, 0x8e, 0x2c, 0x62, 0x0e, 0xf1, 0xf4, 0x29,
  0x7f, 0x01, 0xf2, 0xe4, 0xc3, 0x08, 0x20, 0xd4, 0xfc, 0x12, 0xe7, 0x33,
  0x41, 0xbb, 0x6f, 0xa5, 0x41, 0x28, 0xf6, 0xdc, 0xe6, 0xf2, 0x97, 0xfd,
  0xb2, 0xf1, 0xfc, 0x29, 0x10, 0xcf, 0xf9, 0xa0, 0xe1, 0x04, 0x3c, 0x1c,
  0x3b, 0x2a, 0x0d, 0xac, 0x08, 0x37, 0x06, 0x30, 0x24, 0xcb, 0x35, 0x24,
  0xf4, 0x26, 0xc5, 0x32, 0x1d, 0xe8, 0x13, 0xcd, 0xc9, 0xc4, 0x1f, 0x19,
  0xd1, 0xbf, 0x2d, 0xf3, 0xc1, 0x30, 0x8a, 0xfd, 0x10, 0x0b, 0xcf, 0x27,
  0xf8, 0x27, 0x90, 0xd8, 0x3a, 0x9e, 0x2f, 0x81, 0x13, 0x13, 0x14, 0x88,
  0x94, 0xbf, 0xba, 0x1e, 0x19, 0x63, 0xcc, 0x5b, 0xc7, 0xec, 0x13, 0x1b,
  0x9e, 0x34, 0x93, 0xdd, 0xa1, 0xb5, 0x28, 0x16, 0xcf, 0x15, 0x0e, 0x68,
  0x34, 0xb6, 0x2d, 0xdb, 0xed, 0xbc, 0x08, 0xcd, 0xd9, 0x92, 0x0d, 0xf2,
  0x22, 0x13, 0x24, 0x11, 0xdb, 0xbc, 0x1e, 0x3f, 0x37, 0xe5, 0xbd, 0x0d,
  0x20, 0xeb, 0xde, 0x1b, 0x23, 0x16, 0xe3, 0xe9, 0x28, 0xf8, 0x52, 0xc4,
  0x15, 0xf3, 0xf2, 0xb9, 0x8f, 0x17, 0x0a, 0x1e, 0x36, 0x2d, 0xc6, 0x29,
  0xc2, 0xbb, 0x0d, 0xf2, 0x02, 0xdd, 0xd2, 0x1d, 0xba, 0x81, 0xfb, 0x31,
  0x0e, 0x11, 0x1a, 0x44, 0x11, 0xc1, 0x17, 0xd4, 0x08, 0xc3, 0x28, 0x1f,
  0x0e, 0x9f, 0x1b, 0x01, 0x26, 0x16, 0xf4, 0xe6, 0xfc, 0x17, 0x07, 0x3a,
  0x42, 0xc3, 0x81, 0xe1, 0xf9, 0xfd, 0xf5, 0xee, 0xf6, 0x04, 0x18, 0x01,
  0xdf, 0xdf, 0x08, 0x0d, 0x07, 0xcf, 0xe4, 0xfa, 0xee, 0xef, 0x13, 0xf3,
  0xdb, 0x1d, 0xf3, 0xe9, 0xe0, 0xe7, 0x06, 0xf4, 0xf5, 0xd8, 0x14, 0x03,
  0xbc, 0x01, 0xf3, 0x4f, 0xe8, 0xff, 0x0e, 0xfb, 0xfb, 0x0d, 0x04, 0x1c,
  0x07, 0x04, 0xee, 0xfd, 0x13, 0x05, 0xfd, 0xfc, 0x0c, 0xcb, 0x2e, 0x57,
  0x15, 0xf4, 0x1d, 0xf1, 0x35, 0xe0, 0xe9, 0xce, 0xc3, 0x45, 0x12, 0xe6,
  0x14, 0xf9, 0xfa, 0xf8, 0x07, 0xfd, 0x39, 0x17, 0x09, 0x1b, 0x2a, 0x32,
  0x3b, 0x9e, 0xdb, 0xf4, 0x5c, 0x8d, 0xc9, 0x68, 0xe1, 0x00, 0x37, 0xd6,
  0x0f, 0x2f, 0x13, 0x18, 0xc1, 0x81, 0xfc, 0xe0, 0xd2, 0x12, 0x16, 0x11,
  0x03, 0xe8, 0xf9, 0xef, 0xfe, 0x03, 0x33, 0x36, 0x18, 0xba, 0x0e, 0xf8,
  0xf1, 0x09, 0xfc, 0x49, 0xbc, 0xf7, 0x03, 0x5e, 0x0a, 0xf6, 0xfe, 0xf6,
  0x17, 0x02, 0xf4, 0xf5, 0x04, 0x24, 0x07, 0x2a, 0x3c, 0x08, 0x3f, 0x05,
  0xea, 0xe9, 0x01, 0xbf, 0xa6, 0xed, 0x23, 0x00, 0x09, 0xc7, 0x11, 0x46,
  0xce, 0xc3, 0x30, 0xec, 0xf4, 0x58, 0xf1, 0xdf, 0xdd, 0xbd, 0x06, 0xe2,
  0xf2, 0x04, 0x23, 0x26, 0xf7, 0xc4, 0x24, 0x03, 0x35, 0xa2, 0x05, 0x09,
  0xe5, 0x81, 0x0c, 0x0e, 0xf1, 0x3c, 0x9a, 0xd4, 0x24, 0x52, 0x0e, 0x04,
  0x40, 0x96, 0x07, 0xff, 0x2e, 0xea, 0x04, 0xe9, 0xce, 0xae, 0xd3, 0xe8,
  0xbe, 0xcf, 0xcb, 0x33, 0xef, 0xf7, 0xf5, 0xf1, 0xa7, 0xb6, 0xde, 0xb2,
  0x08, 0x81, 0x95, 0xb9, 0xfe, 0xea, 0xa8, 0xcf, 0x19, 0xb4, 0x4b, 0x1b,
  0x28, 0x25, 0xaf, 0xaa, 0x8a, 0xb9, 0xe0, 0x9a, 0xd2, 0xdf, 0xc6, 0x54,
  0xc3, 0x01, 0x96, 0xf9, 0x20, 0xbd, 0xdb, 0xaf, 0x2b, 0xa5, 0x10, 0x71,
  0xea, 0x10, 0x24, 0xf1, 0xc9, 0xcf, 0x1f, 0xa5, 0xb6, 0x20, 0x1e, 0xca,
  0xf5, 0x2f, 0x1a, 0xd2, 0xa4, 0xc7, 0xb5, 0xac, 0xfd, 0xff, 0x1d, 0xdc,
  0x25, 0x9f, 0x90, 0x15, 0xfb, 0x81, 0xd9, 0x69, 0x22, 0xd5, 0x8a, 0xca,
  0x1b, 0x14, 0x22, 0x0e, 0xe8, 0x32, 0xd9, 0xda, 0xe2, 0x1b, 0x05, 0x8f,
  0x0b, 0x1d, 0x0f, 0xea, 0x34, 0xb0, 0xac, 0x40, 0xdb, 0xc8, 0x10, 0xe7,
  0xed, 0xe9, 0x08, 0xf5, 0xf3, 0x00, 0xee, 0x30, 0x41, 0x28, 0xdb, 0xed,
  0x1f, 0xe6, 0xf8, 0xe0, 0xfb, 0xe1, 0x1b, 0xe8, 0xe1, 0xef, 0xc7, 0xfb,
  0xcf, 0x0c, 0x26, 0x07, 0xee, 0x17, 0x30, 0xfc, 0xc6, 0x56, 0x34, 0xd8,
  0xfd, 0x0f, 0x1a, 0xf3, 0x18, 0xd1, 0x04, 0xbd, 0xc5, 0x18, 0xe8, 0x7f,
  0x00, 0xfc, 0xf2, 0xec, 0xed, 0xe9, 0xe3, 0x01, 0x09, 0x35, 0x0a, 0xae,
  0xe4, 0xd8, 0xf5, 0x18, 0xf3, 0x1f, 0xf3, 0xf8, 0xde, 0xea, 0xd5, 0xed,
  0x01, 0x18, 0xef, 0x14, 0x14, 0x19, 0xf9, 0xeb, 0xe8, 0xe4, 0xd3, 0xfa,
  0xf4, 0x10, 0x0d, 0x00, 0xf6, 0xca, 0x26, 0x3a, 0x0f, 0x0c, 0x20, 0xec,
  0x3f, 0xf7, 0x06, 0x11, 0x0b, 0x21, 0x0a, 0x1f, 0x1c, 0x35, 0x12, 0xde,
  0xe6, 0x81, 0xf4, 0xf3, 0x17, 0xf3, 0xf3, 0x08, 0x02, 0xdf, 0x11, 0x09,
  0x01, 0x10, 0x1e, 0x3f, 0xf0, 0xe6, 0xfa, 0xef, 0x96, 0x07, 0xd4, 0xe7,
  0xd9, 0x18, 0xdd, 0xc6, 0x81, 0x23, 0x6c, 0x0b, 0x0e, 0x49, 0xec, 0x03,
  0xdd, 0xf3, 0xa0, 0xd6, 0x2a, 0x40, 0x24, 0x0c, 0x00, 0x90, 0x16, 0x2c,
  0x39, 0xfd, 0x35, 0xbd, 0x32, 0x24, 0x0a, 0x2b, 0xe2, 0xd8, 0x0f, 0x44,
  0x77, 0x17, 0x1b, 0xca, 0xc3, 0xdb, 0xce, 0x71, 0xff, 0xf7, 0x0b, 0x36,
  0x05, 0xc2, 0xc9, 0xae, 0x3c, 0xeb, 0xf2, 0xfd, 0xc5, 0xd8, 0xf8, 0xfb,
  0xbd, 0xfa, 0x1d, 0xea, 0xe8, 0xa2, 0xcf, 0x81, 0xd9, 0xd9, 0xc4, 0xb6,
  0x04, 0x27, 0x12, 0xc4, 0x18, 0xea, 0x13, 0x17, 0x40, 0x0c, 0xed, 0x8d,
  0x1f, 0xaa, 0x16, 0xf5, 0xcb, 0xd3, 0xdc, 0x09, 0x53, 0x9e, 0xce, 0x0b,
  0xf4, 0x14, 0xdd, 0xe4, 0x29, 0xdf, 0x07, 0xf4, 0x28, 0xc6, 0xe4, 0xc0,
  0xc3, 0xf6, 0xd2, 0xff, 0x19, 0x1f, 0x05, 0xc6, 0x40, 0xc8, 0xe6, 0x47,
  0xcf, 0x26, 0x01, 0xd9, 0x29, 0xd5, 0x0d, 0x02, 0x25, 0xca, 0xfe, 0x34,
  0x7f, 0xf4, 0xdd, 0xf7, 0xde, 0x21, 0x01, 0x1e, 0x1a, 0x2d, 0x07, 0x01,
  0x06, 0xc7, 0x0c, 0x2f, 0x0f, 0x3a, 0xed, 0xda, 0xc8, 0x28, 0xb0, 0x21,
  0xac, 0x08, 0x32, 0x5c, 0xe4, 0xc8, 0x1d, 0xe9, 0xea, 0x02, 0xe5, 0xef,
  0x10, 0x1b, 0x12, 0xfd, 0xf9, 0x09, 0x26, 0xfd, 0x09, 0x20, 0x00, 0xd9,
  0xe7, 0xf0, 0xf3, 0x09, 0x04, 0xaf, 0x0c, 0x0f, 0xb6, 0x30, 0x0b, 0xcc,
  0x0e, 0x3d, 0xf7, 0xe2, 0xa0, 0xb5, 0xed, 0x28, 0x38, 0xd6, 0xf6, 0xcb,
  0xf2, 0xe1, 0xfe, 0xd5, 0xf2, 0x3a, 0x1f, 0x13, 0xf1, 0xb0, 0x39, 0x26,
  0xf9, 0xbb, 0x2e, 0xe0, 0x7f, 0xd9, 0xcb, 0x17, 0xf8, 0x21, 0x02, 0x09,
  0x38, 0xf7, 0x22, 0x04, 0x26, 0x28, 0xcd, 0xbd, 0xd4, 0x13, 0xc6, 0xf9,
  0xf6, 0x04, 0x05, 0x0b, 0x44, 0xe1, 0xff, 0x1e, 0xd0, 0xe6, 0xef, 0xd6,
  0x32, 0xfe, 0xff, 0xff, 0x04, 0x00, 0x00, 0x00, 0x80, 0x00, 0x00, 0x00,
  0x29, 0x18, 0x00, 0x00, 0x5a, 0x05, 0x00, 0x00, 0x61, 0x36, 0x00, 0x00,
  0xe7, 0x14, 0x00, 0x00, 0x07, 0x4a, 0x00, 0x00, 0xf9, 0x25, 0x00, 0x00,
  0x1e, 0x25, 0x00, 0x00, 0xc0, 0x12, 0x00, 0x00, 0xdb, 0x2e, 0x00, 0x00,
  0xac, 0x48, 0x00, 0x00, 0x7f, 0x0c, 0x00, 0x00, 0x2a, 0x6e, 0x00, 0x00,
  0x7d, 0x74, 0x00, 0x00, 0xad, 0x62, 0x00, 0x00, 0xb5, 0x64, 0x00, 0x00,
  0x2f, 0x3c, 0x00, 0x00, 0xfd, 0x07, 0x00, 0x00, 0x92, 0xd1, 0xff, 0xff,
  0x25, 0x1a, 0x00, 0x00, 0x8a, 0xb2, 0x00, 0x00, 0x3a, 0x4f, 0x00, 0x00,
  0xdc, 0x24, 0x00, 0x00, 0x2a, 0x17, 0x00, 0x00, 0x1c, 0x36, 0x00, 0x00,
  0x7f, 0xae, 0x00, 0x00, 0x75, 0x90, 0x00, 0x00, 0x90, 0x13, 0x00, 0x00,
  0x06, 0x02, 0x00, 0x00, 0x82, 0x36, 0x00, 0x00, 0x2c, 0x8a, 0x00, 0x00,
  0xe4, 0x0c, 0x00, 0x00, 0xf9, 0x26, 0x00, 0x00, 0xbe, 0xfe, 0xff, 0xff,
  0x04, 0x00, 0x00, 0x00, 0x80, 0x00, 0x00, 0x00, 0x3f, 0xf5, 0xab, 0xc7,
  0x7f, 0x3b, 0x0a, 0x4e, 0xd0, 0xc3, 0xa8, 0x3a, 0x37, 0x21, 0xcd, 0x6f,
  0xbb, 0xeb, 0xbf, 0xb0, 0xbe, 0x8e, 0xeb, 0xbb, 0x5c, 0x3d, 0xc7, 0x12,
  0x03, 0x48, 0xee, 0x33, 0xd2, 0xee, 0x5d, 0x43, 0x71, 0xea, 0xe9, 0xfb,
  0xd0, 0x55, 0x04, 0xe9, 0xd8, 0xcf, 0xe4, 0x12, 0x63, 0xfc, 0xc3, 0xb8,
  0xc7, 0x2a, 0xb1, 0xce, 0x2e, 0xc2, 0x7f, 0xcc, 0xdc, 0xd6, 0x12, 0xca,
  0x06, 0x47, 0xe4, 0xee, 0xc7, 0xcf, 0x57, 0xe5, 0xf0, 0xeb, 0x4b, 0x31,
  0xd1, 0xe0, 0x46, 0x04, 0xe8, 0x7f, 0xce, 0x27, 0x3a, 0xf4, 0xca, 0x53,
  0xf3, 0xba, 0x60, 0x4d, 0x5f, 0xeb, 0xd9, 0x09, 0xe2, 0x11, 0x53, 0xb6,
  0x9f, 0xa9, 0xf1, 0xd0, 0x61, 0x53, 0xc4, 0x09, 0x37, 0x42, 0x60, 0x31,
  0x51, 0xf7, 0x4b, 0x22, 0x3b, 0x14, 0x35, 0x28, 0x91, 0x4d, 0x9a, 0xca,
  0xd3, 0x2b, 0x7f, 0xa6, 0x4a, 0xff, 0xff, 0xff, 0x04, 0x00, 0x00, 0x00,
  0x10, 0x00, 0x00, 0x00, 0x7a, 0xfe, 0xff, 0xff, 0x64, 0xa7, 0x00, 0x00,
  0x69, 0x97, 0xff, 0xff, 0x57, 0x7c, 0xff, 0xff, 0x34, 0xff, 0xff, 0xff,
  0x38, 0xff, 0xff, 0xff, 0x0f, 0x00, 0x00, 0x00, 0x4d, 0x4c, 0x49, 0x52,
  0x20, 0x43, 0x6f, 0x6e, 0x76, 0x65, 0x72, 0x74, 0x65, 0x64, 0x2e, 0x00,
  0x01, 0x00, 0x00, 0x00, 0x14, 0x00, 0x00, 0x00, 0x00, 0x00, 0x0e, 0x00,
  0x18, 0x00, 0x14, 0x00, 0x10, 0x00, 0x0c, 0x00, 0x08, 0x00, 0x04, 0x00,
  0x0e, 0x00, 0x00, 0x00, 0x14, 0x00, 0x00, 0x00, 0x1c, 0x00, 0x00, 0x00,
  0x70, 0x01, 0x00, 0x00, 0x74, 0x01, 0x00, 0x00, 0x78, 0x01, 0x00, 0x00,
  0x04, 0x00, 0x00, 0x00, 0x6d, 0x61, 0x69, 0x6e, 0x00, 0x00, 0x00, 0x00,
  0x05, 0x00, 0x00, 0x00, 0x18, 0x01, 0x00, 0x00, 0xd0, 0x00, 0x00, 0x00,
  0x88, 0x00, 0x00, 0x00, 0x50, 0x00, 0x00, 0x00, 0x14, 0x00, 0x00, 0x00,
  0x00, 0x00, 0x0e, 0x00, 0x1a, 0x00, 0x14, 0x00, 0x10, 0x00, 0x0c, 0x00,
  0x0b, 0x00, 0x04, 0x00, 0x0e, 0x00, 0x00, 0x00, 0x1c, 0x00, 0x00, 0x00,
  0x00, 0x00, 0x00, 0x09, 0x1c, 0x00, 0x00, 0x00, 0x20, 0x00, 0x00, 0x00,
  0x01, 0x00, 0x00, 0x00, 0x00, 0x00, 0x06, 0x00, 0x08, 0x00, 0x04, 0x00,
  0x06, 0x00, 0x00, 0x00, 0x00, 0x00, 0x80, 0x3f, 0x01, 0x00, 0x00, 0x00,
  0x0d, 0x00, 0x00, 0x00, 0x01, 0x00, 0x00, 0x00, 0x0c, 0x00, 0x00, 0x00,
  0x96, 0xff, 0xff, 0xff, 0x14, 0x00, 0x00, 0x00, 0x00, 0x00, 0x00, 0x08,
  0x10, 0x00, 0x00, 0x00, 0x14, 0x00, 0x00, 0x00, 0x04, 0x00, 0x04, 0x00,
  0x04, 0x00, 0x00, 0x00, 0x01, 0x00, 0x00, 0x00, 0x0c, 0x00, 0x00, 0x00,
  0x03, 0x00, 0x00, 0x00, 0x0b, 0x00, 0x00, 0x00, 0x02, 0x00, 0x00, 0x00,
  0x01, 0x00, 0x00, 0x00, 0xca, 0xff, 0xff, 0xff, 0x10, 0x00, 0x00, 0x00,
  0x00, 0x00, 0x00, 0x08, 0x10, 0x00, 0x00, 0x00, 0x14, 0x00, 0x00, 0x00,
  0x76, 0xff, 0xff, 0xff, 0x00, 0x00, 0x00, 0x01, 0x01, 0x00, 0x00, 0x00,
  0x0b, 0x00, 0x00, 0x00, 0x03, 0x00, 0x00, 0x00, 0x0a, 0x00, 0x00, 0x00,
  0x04, 0x00, 0x00, 0x00, 0x03, 0x00, 0x00, 0x00, 0x00, 0x00, 0x0e, 0x00,
  0x14, 0x00, 0x00, 0x00, 0x10, 0x00, 0x0c, 0x00, 0x0b, 0x00, 0x04, 0x00,
  0x0e, 0x00, 0x00, 0x00, 0x10, 0x00, 0x00, 0x00, 0x00, 0x00, 0x00, 0x08,
  0x10, 0x00, 0x00, 0x00, 0x14, 0x00, 0x00, 0x00, 0xba, 0xff, 0xff, 0xff,
  0x00, 0x00, 0x00, 0x01, 0x01, 0x00, 0x00, 0x00, 0x0a, 0x00, 0x00, 0x00,
  0x03, 0x00, 0x00, 0x00, 0x09, 0x00, 0x00, 0x00, 0x06, 0x00, 0x00, 0x00,
  0x05, 0x00, 0x00, 0x00, 0x00, 0x00, 0x0e, 0x00, 0x16, 0x00, 0x00, 0x00,
  0x10, 0x00, 0x0c, 0x00, 0x0b, 0x00, 0x04, 0x00, 0x0e, 0x00, 0x00, 0x00,
  0x18, 0x00, 0x00, 0x00, 0x00, 0x00, 0x00, 0x08, 0x18, 0x00, 0x00, 0x00,
  0x1c, 0x00, 0x00, 0x00, 0x00, 0x00, 0x06, 0x00, 0x08, 0x00, 0x07, 0x00,
  0x06, 0x00, 0x00, 0x00, 0x00, 0x00, 0x00, 0x01, 0x01, 0x00, 0x00, 0x00,
  0x09, 0x00, 0x00, 0x00, 0x03, 0x00, 0x00, 0x00, 0x00, 0x00, 0x00, 0x00,
  0x08, 0x00, 0x00, 0x00, 0x07, 0x00, 0x00, 0x00, 0x01, 0x00, 0x00, 0x00,
  0x0d, 0x00, 0x00, 0x00, 0x01, 0x00, 0x00, 0x00, 0x00, 0x00, 0x00, 0x00,
  0x0e, 0x00, 0x00, 0x00, 0x64, 0x1c, 0x00, 0x00, 0xc4, 0x1b, 0x00, 0x00,
  0x38, 0x1b, 0x00, 0x00, 0x64, 0x19, 0x00, 0x00, 0x88, 0x17, 0x00, 0x00,
  0x34, 0x14, 0x00, 0x00, 0xd8, 0x10, 0x00, 0x00, 0x84, 0x0a, 0x00, 0x00,
  0x28, 0x04, 0x00, 0x00, 0x84, 0x03, 0x00, 0x00, 0x70, 0x02, 0x00, 0x00,
  0x5c, 0x01, 0x00, 0x00, 0x60, 0x00, 0x00, 0x00, 0x04, 0x00, 0x00, 0x00,
  0xea, 0xe3, 0xff, 0xff, 0x00, 0x00, 0x00, 0x01, 0x14, 0x00, 0x00, 0x00,
  0x30, 0x00, 0x00, 0x00, 0x0e, 0x00, 0x00, 0x00, 0x00, 0x00, 0x00, 0x09,
  0x34, 0x00, 0x00, 0x00, 0xd4, 0xe3, 0xff, 0xff, 0x08, 0x00, 0x00, 0x00,
  0x10, 0x00, 0x00, 0x00, 0x01, 0x00, 0x00, 0x00, 0x80, 0xff, 0xff, 0xff,
  0xff, 0xff, 0xff, 0xff, 0x01, 0x00, 0x00, 0x00, 0x00, 0x00, 0x80, 0x3b,
  0x08, 0x00, 0x00, 0x00, 0x49, 0x64, 0x65, 0x6e, 0x74, 0x69, 0x74, 0x79,
  0x00, 0x00, 0x00, 0x00, 0x02, 0x00, 0x00, 0x00, 0x01, 0x00, 0x00, 0x00,
  0x04, 0x00, 0x00, 0x00, 0x42, 0xe4, 0xff, 0xff, 0x00, 0x00, 0x00, 0x01,
  0x14, 0x00, 0x00, 0x00, 0x34, 0x00, 0x00, 0x00, 0x0d, 0x00, 0x00, 0x00,
  0x00, 0x00, 0x00, 0x09, 0xd4, 0x00, 0x00, 0x00, 0x2c, 0xe4, 0xff, 0xff,
  0x08, 0x00, 0x00, 0x00, 0x14, 0x00, 0x00, 0x00, 0x01, 0x00, 0x00, 0x00,
  0xcc, 0xff, 0xff, 0xff, 0xff, 0xff, 0xff, 0xff, 0x00, 0x00, 0x00, 0x00,
  0x01, 0x00, 0x00, 0x00, 0x49, 0x70, 0xac, 0x3d, 0xa6, 0x00, 0x00, 0x00,
  0x73, 0x65, 0x71, 0x75, 0x65, 0x6e, 0x74, 0x69, 0x61, 0x6c, 0x5f, 0x31,
  0x2f, 0x62, 0x61, 0x74, 0x63, 0x68, 0x5f, 0x6e, 0x6f, 0x72, 0x6d, 0x61,
  0x6c, 0x69, 0x7a, 0x61, 0x74, 0x69, 0x6f, 0x6e, 0x5f, 0x32, 0x5f, 0x31,
  0x2f, 0x62, 0x61, 0x74, 0x63, 0x68, 0x6e, 0x6f, 0x72, 0x6d, 0x2f, 0x6d,
  0x75, 0x6c, 0x5f, 0x31, 0x3b, 0x73, 0x65, 0x71, 0x75, 0x65, 0x6e, 0x74,
  0x69, 0x61, 0x6c, 0x5f, 0x31, 0x2f, 0x62, 0x61, 0x74, 0x63, 0x68, 0x5f,
  0x6e, 0x6f, 0x72, 0x6d, 0x61, 0x6c, 0x69, 0x7a, 0x61, 0x74, 0x69, 0x6f,
  0x6e, 0x5f, 0x32, 0x5f, 0x31, 0x2f, 0x62, 0x61, 0x74, 0x63, 0x68, 0x6e,
  0x6f, 0x72, 0x6d, 0x2f, 0x61, 0x64, 0x64, 0x5f, 0x31, 0x3b, 0x73, 0x65,
  0x71, 0x75, 0x65, 0x6e, 0x74, 0x69, 0x61, 0x6c, 0x5f, 0x31, 0x2f, 0x64,
  0x65, 0x6e, 0x73, 0x65, 0x5f, 0x33, 0x5f, 0x31, 0x2f, 0x4d, 0x61, 0x74,
  0x4d, 0x75, 0x6c, 0x3b, 0x73, 0x65, 0x71, 0x75, 0x65, 0x6e, 0x74, 0x69,
  0x61, 0x6c, 0x5f, 0x31, 0x2f, 0x64, 0x65, 0x6e, 0x73, 0x65, 0x5f, 0x33,
  0x5f, 0x31, 0x2f, 0x42, 0x69, 0x61, 0x73, 0x41, 0x64, 0x64, 0x00, 0x00,
  0x02, 0x00, 0x00, 0x00, 0x01, 0x00, 0x00, 0x00, 0x04, 0x00, 0x00, 0x00,
  0x3a, 0xe5, 0xff, 0xff, 0x00, 0x00, 0x00, 0x01, 0x14, 0x00, 0x00, 0x00,
  0x30, 0x00, 0x00, 0x00, 0x0c, 0x00, 0x00, 0x00, 0x00, 0x00, 0x00, 0x09,
  0xec, 0x00, 0x00, 0x00, 0x24, 0xe5, 0xff, 0xff, 0x08, 0x00, 0x00, 0x00,
  0x10, 0x00, 0x00, 0x00, 0x01, 0x00, 0x00, 0x00, 0x80, 0xff, 0xff, 0xff,
  0xff, 0xff, 0xff, 0xff, 0x01, 0x00, 0x00, 0x00, 0xa5, 0x7a, 0x08, 0x3d,
  0xc2, 0x00, 0x00, 0x00, 0x73, 0x65, 0x71, 0x75, 0x65, 0x6e, 0x74, 0x69,
  0x61, 0x6c, 0x5f, 0x31, 0x2f, 0x62, 0x61, 0x74, 0x63, 0x68, 0x5f, 0x6e,
  0x6f, 0x72, 0x6d, 0x61, 0x6c, 0x69, 0x7a, 0x61, 0x74, 0x69, 0x6f, 0x6e,
  0x5f, 0x31, 0x5f, 0x32, 0x2f, 0x62, 0x61, 0x74, 0x63, 0x68, 0x6e, 0x6f,
  0x72, 0x6d, 0x2f, 0x6d, 0x75, 0x6c, 0x5f, 0x31, 0x3b, 0x73, 0x65, 0x71,
  0x75, 0x65, 0x6e, 0x74, 0x69, 0x61, 0x6c, 0x5f, 0x31, 0x2f, 0x62, 0x61,
  0x74, 0x63, 0x68, 0x5f, 0x6e, 0x6f, 0x72, 0x6d, 0x61, 0x6c, 0x69, 0x7a,
  0x61, 0x74, 0x69, 0x6f, 0x6e, 0x5f, 0x31, 0x5f, 0x32, 0x2f, 0x62, 0x61,
  0x74, 0x63, 0x68, 0x6e, 0x6f, 0x72, 0x6d, 0x2f, 0x61, 0x64, 0x64, 0x5f,
  0x31, 0x3b, 0x73, 0x65, 0x71, 0x75, 0x65, 0x6e, 0x74, 0x69, 0x61, 0x6c,
  0x5f, 0x31, 0x2f, 0x64, 0x65, 0x6e, 0x73, 0x65, 0x5f, 0x32, 0x5f, 0x31,
  0x2f, 0x4d, 0x61, 0x74, 0x4d, 0x75, 0x6c, 0x3b, 0x73, 0x65, 0x71, 0x75,
  0x65, 0x6e, 0x74, 0x69, 0x61, 0x6c, 0x5f, 0x31, 0x2f, 0x64, 0x65, 0x6e,
  0x73, 0x65, 0x5f, 0x32, 0x5f, 0x31, 0x2f, 0x52, 0x65, 0x6c, 0x75, 0x3b,
  0x73, 0x65, 0x71, 0x75, 0x65, 0x6e, 0x74, 0x69, 0x61, 0x6c, 0x5f, 0x31,
  0x2f, 0x64, 0x65, 0x6e, 0x73, 0x65, 0x5f, 0x32, 0x5f, 0x31, 0x2f, 0x42,
  0x69, 0x61, 0x73, 0x41, 0x64, 0x64, 0x00, 0x00, 0x02, 0x00, 0x00, 0x00,
  0x01, 0x00, 0x00, 0x00, 0x20, 0x00, 0x00, 0x00, 0x4a, 0xe6, 0xff, 0xff,
  0x00, 0x00, 0x00, 0x01, 0x14, 0x00, 0x00, 0x00, 0x34, 0x00, 0x00, 0x00,
  0x0b, 0x00, 0x00, 0x00, 0x00, 0x00, 0x00, 0x09, 0xec, 0x00, 0x00, 0x00,
  0x34, 0xe6, 0xff, 0xff, 0x08, 0x00, 0x00, 0x00, 0x14, 0x00, 0x00, 0x00,
  0x01, 0x00, 0x00, 0x00, 0x80, 0xff, 0xff, 0xff, 0xff, 0xff, 0xff, 0xff,
  0x00, 0x00, 0x00, 0x00, 0x01, 0x00, 0x00, 0x00, 0xa5, 0x14, 0x61, 0x3d,
  0xbe, 0x00, 0x00, 0x00, 0x73, 0x65, 0x71, 0x75, 0x65, 0x6e, 0x74, 0x69,
  0x61, 0x6c, 0x5f, 0x31, 0x2f, 0x62, 0x61, 0x74, 0x63, 0x68, 0x5f, 0x6e,
  0x6f, 0x72, 0x6d, 0x61, 0x6c, 0x69, 0x7a, 0x61, 0x74, 0x69, 0x6f, 0x6e,
  0x5f, 0x31, 0x2f, 0x62, 0x61, 0x74, 0x63, 0x68, 0x6e, 0x6f, 0x72, 0x6d,
  0x2f, 0x6d, 0x75, 0x6c, 0x5f, 0x31, 0x3b, 0x73, 0x65, 0x71, 0x75, 0x65,
  0x6e, 0x74, 0x69, 0x61, 0x6c, 0x5f, 0x31, 0x2f, 0x62, 0x61, 0x74, 0x63,
  0x68, 0x5f, 0x6e, 0x6f, 0x72, 0x6d, 0x61, 0x6c, 0x69, 0x7a, 0x61, 0x74,
  0x69, 0x6f, 0x6e, 0x5f, 0x31, 0x2f, 0x62, 0x61, 0x74, 0x63, 0x68, 0x6e,
  0x6f, 0x72, 0x6d, 0x2f, 0x61, 0x64, 0x64, 0x5f, 0x31, 0x3b, 0x73, 0x65,
  0x71, 0x75, 0x65, 0x6e, 0x74, 0x69, 0x61, 0x6c, 0x5f, 0x31, 0x2f, 0x64,
  0x65, 0x6e, 0x73, 0x65, 0x5f, 0x31, 0x5f, 0x32, 0x2f, 0x4d, 0x61, 0x74,
  0x4d, 0x75, 0x6c, 0x3b, 0x73, 0x65, 0x71, 0x75, 0x65, 0x6e, 0x74, 0x69,
  0x61, 0x6c, 0x5f, 0x31, 0x2f, 0x64, 0x65, 0x6e, 0x73, 0x65, 0x5f, 0x31,
  0x5f, 0x32, 0x2f, 0x52, 0x65, 0x6c, 0x75, 0x3b, 0x73, 0x65, 0x71, 0x75,
  0x65, 0x6e, 0x74, 0x69, 0x61, 0x6c, 0x5f, 0x31, 0x2f, 0x64, 0x65, 0x6e,
  0x73, 0x65, 0x5f, 0x31, 0x5f, 0x32, 0x2f, 0x42, 0x69, 0x61, 0x73, 0x41,
  0x64, 0x64, 0x00, 0x00, 0x02, 0x00, 0x00, 0x00, 0x01, 0x00, 0x00, 0x00,
  0x40, 0x00, 0x00, 0x00, 0x5a, 0xe7, 0xff, 0xff, 0x00, 0x00, 0x00, 0x01,
  0x14, 0x00, 0x00, 0x00, 0x30, 0x00, 0x00, 0x00, 0x0a, 0x00, 0x00, 0x00,
  0x00, 0x00, 0x00, 0x09, 0x7c, 0x00, 0x00, 0x00, 0x44, 0xe7, 0xff, 0xff,
  0x08, 0x00, 0x00, 0x00, 0x10, 0x00, 0x00, 0x00, 0x01, 0x00, 0x00, 0x00,
  0x80, 0xff, 0xff, 0xff, 0xff, 0xff, 0xff, 0xff, 0x01, 0x00, 0x00, 0x00,
  0x31, 0x59, 0x6d, 0x3c, 0x52, 0x00, 0x00, 0x00, 0x73, 0x65, 0x71, 0x75,
  0x65, 0x6e, 0x74, 0x69, 0x61, 0x6c, 0x5f, 0x31, 0x2f, 0x64, 0x65, 0x6e,
  0x73, 0x65, 0x5f, 0x31, 0x2f, 0x4d, 0x61, 0x74, 0x4d, 0x75, 0x6c, 0x3b,
  0x73, 0x65, 0x71, 0x75, 0x65, 0x6e, 0x74, 0x69, 0x61, 0x6c, 0x5f, 0x31,
  0x2f, 0x64, 0x65, 0x6e, 0x73, 0x65, 0x5f, 0x31, 0x2f, 0x52, 0x65, 0x6c,
  0x75, 0x3b, 0x73, 0x65, 0x71, 0x75, 0x65, 0x6e, 0x74, 0x69, 0x61, 0x6c,
  0x5f, 0x31, 0x2f, 0x64, 0x65, 0x6e, 0x73, 0x65, 0x5f, 0x31, 0x2f, 0x42,
  0x69, 0x61, 0x73, 0x41, 0x64, 0x64, 0x00, 0x00, 0x02, 0x00, 0x00, 0x00,
  0x01, 0x00, 0x00, 0x00, 0x80, 0x00, 0x00, 0x00, 0xfa, 0xe7, 0xff, 0xff,
  0x00, 0x00, 0x00, 0x01, 0x14, 0x00, 0x00, 0x00, 0x28, 0x06, 0x00, 0x00,
  0x09, 0x00, 0x00, 0x00, 0x00, 0x00, 0x00, 0x09, 0x34, 0x06, 0x00, 0x00,
  0xe4, 0xe7, 0xff, 0xff, 0x08, 0x00, 0x00, 0x00, 0x0c, 0x04, 0x00, 0x00,
